{"vocab": {"<PAD>": 0, "<UNK>": 1, "<BOS>": 2, "<EOS>": 3, "<MASK>": 4, "\u0000": 5, "\u0001": 6, "\u0002": 7, "\u0003": 8, "\u0004": 9, "\u0005": 10, "\u0006": 11, "\u0007": 12, "\b": 13, "\t": 14, "\n": 15, "\u000b": 16, "\f": 17, "\r": 18, "\u000e": 19, "\u000f": 20, "\u0010": 21, "\u0011": 22, "\u0012": 23, "\u0013": 24, "\u0014": 25, "\u0015": 26, "\u0016": 27, "\u0017": 28, "\u0018": 29, "\u0019": 30, "\u001a": 31, "\u001b": 32, "\u001c": 33, "\u001d": 34, "\u001e": 35, "\u001f": 36, " ": 37, "!": 38, "\"": 39, "#": 40, "$": 41, "%": 42, "&": 43, "'": 44, "(": 45, ")": 46, "*": 47, "+": 48, ",": 49, "-": 50, ".": 51, "/": 52, "0": 53, "1": 54, "2": 55, "3": 56, "4": 57, "5": 58, "6": 59, "7": 60, "8": 61, "9": 62, ":": 63, ";": 64, "<": 65, "=": 66, ">": 67, "?": 68, "@": 69, "A": 70, "B": 71, "C": 72, "D": 73, "E": 74, "F": 75, "G": 76, "H": 77, "I": 78, "J": 79, "K": 80, "L": 81, "M": 82, "N": 83, "O": 84, "P": 85, "Q": 86, "R": 87, "S": 88, "T": 89, "U": 90, "V": 91, "W": 92, "X": 93, "Y": 94, "Z": 95, "[": 96, "\\": 97, "]": 98, "^": 99, "_": 100, "`": 101, "a": 102, "b": 103, "c": 104, "d": 105, "e": 106, "f": 107, "g": 108, "h": 109, "i": 110, "j": 111, "k": 112, "l": 113, "m": 114, "n": 115, "o": 116, "p": 117, "q": 118, "r": 119, "s": 120, "t": 121, "u": 122, "v": 123, "w": 124, "x": 125, "y": 126, "z": 127, "{": 128, "|": 129, "}": 130, "~": 131, "\u007f": 132, "\u0080": 133, "\u0081": 134, "\u0082": 135, "\u0083": 136, "\u0084": 137, "\u0085": 138, "\u0086": 139, "\u0087": 140, "\u0088": 141, "\u0089": 142, "\u008a": 143, "\u008b": 144, "\u008c": 145, "\u008d": 146, "\u008e": 147, "\u008f": 148, "\u0090": 149, "\u0091": 150, "\u0092": 151, "\u0093": 152, "\u0094": 153, "\u0095": 154, "\u0096": 155, "\u0097": 156, "\u0098": 157, "\u0099": 158, "\u009a": 159, "\u009b": 160, "\u009c": 161, "\u009d": 162, "\u009e": 163, "\u009f": 164, "\u00a0": 165, "\u00a1": 166, "\u00a2": 167, "\u00a3": 168, "\u00a4": 169, "\u00a5": 170, "\u00a6": 171, "\u00a7": 172, "\u00a8": 173, "\u00a9": 174, "\u00aa": 175, "\u00ab": 176, "\u00ac": 177, "\u00ad": 178, "\u00ae": 179, "\u00af": 180, "\u00b0": 181, "\u00b1": 182, "\u00b2": 183, "\u00b3": 184, "\u00b4": 185, "\u00b5": 186, "\u00b6": 187, "\u00b7": 188, "\u00b8": 189, "\u00b9": 190, "\u00ba": 191, "\u00bb": 192, "\u00bc": 193, "\u00bd": 194, "\u00be": 195, "\u00bf": 196, "\u00c0": 197, "\u00c1": 198, "\u00c2": 199, "\u00c3": 200, "\u00c4": 201, "\u00c5": 202, "\u00c6": 203, "\u00c7": 204, "\u00c8": 205, "\u00c9": 206, "\u00ca": 207, "\u00cb": 208, "\u00cc": 209, "\u00cd": 210, "\u00ce": 211, "\u00cf": 212, "\u00d0": 213, "\u00d1": 214, "\u00d2": 215, "\u00d3": 216, "\u00d4": 217, "\u00d5": 218, "\u00d6": 219, "\u00d7": 220, "\u00d8": 221, "\u00d9": 222, "\u00da": 223, "\u00db": 224, "\u00dc": 225, "\u00dd": 226, "\u00de": 227, "\u00df": 228, "\u00e0": 229, "\u00e1": 230, "\u00e2": 231, "\u00e3": 232, "\u00e4": 233, "\u00e5": 234, "\u00e6": 235, "\u00e7": 236, "\u00e8": 237, "\u00e9": 238, "\u00ea": 239, "\u00eb": 240, "\u00ec": 241, "\u00ed": 242, "\u00ee": 243, "\u00ef": 244, "\u00f0": 245, "\u00f1": 246, "\u00f2": 247, "\u00f3": 248, "\u00f4": 249, "\u00f5": 250, "\u00f6": 251, "\u00f7": 252, "\u00f8": 253, "\u00f9": 254, "\u00fa": 255, "\u00fb": 256, "\u00fc": 257, "\u00fd": 258, "\u00fe": 259, "\u00ff": 260, "s</w>": 261, "e</w>": 262, "in": 263, "an": 264, "th": 265, "on": 266, ".</w>": 267, "at": 268, "d</w>": 269, "er": 270, "en": 271, "al": 272, ",</w>": 273, "ar": 274, "or": 275, "ion": 276, "es": 277, "ro": 278, "t</w>": 279, "es</w>": 280, "the</w>": 281, "y</w>": 282, "and</w>": 283, "ing": 284, "ic": 285, "a</w>": 286, "re": 287, "f</w>": 288, "ing</w>": 289, "al</w>": 290, "le": 291, "o</w>": 292, "of</w>": 293, "it": 294, "ed</w>": 295, "is</w>": 296, "ent": 297, "m</w>": 298, "st": 299, "ion</w>": 300, "ur": 301, "pro": 302, "Th": 303, "The</w>": 304, "ol": 305, "to</w>": 306, "un": 307, "iv": 308, "at</w>": 309, "as": 310, "me": 311, "ct": 312, "in</w>": 313, "us": 314, "is": 315, "for": 316, "qu": 317, "con": 318, ":</w>": 319, "ch": 320, "er</w>": 321, "co": 322, "el": 323, "mo": 324, "mp": 325, "e.</w>": 326, "ab": 327, "gh": 328, "ra": 329, "ang": 330, "ex": 331, "ation": 332, "fro": 333, "from</w>": 334, "enc": 335, "ag": 336, "lo": 337, "di": 338, "ne": 339, "ent</w>": 340, "are</w>": 341, "im": 342, "iz": 343, "an</w>": 344, "ver": 345, "s,</w>": 346, "ith": 347, "n</w>": 348, "um": 349, "ci": 350, "y.</w>": 351, "id": 352, "il": 353, "ut": 354, "by</w>": 355, "ow": 356, "form": 357, "ri": 358, "wor": 359, "e,</w>": 360, "s.</w>": 361, "ic</w>": 362, "that</w>": 363, "ate</w>": 364, "ul": 365, "A</w>": 366, "le</w>": 367, "ation</w>": 368, "lear": 369, "pl": 370, "em": 371, "ter": 372, "mod": 373, "be": 374, "dat": 375, "ou": 376, "es.</w>": 377, "per": 378, "all": 379, "d.</w>": 380, "ght": 381, "des": 382, "to": 383, "pr": 384, "its</w>": 385, "with": 386, "equ": 387, "ac": 388, "cent": 389, "ph": 390, "age</w>": 391, "ad": 392, "ical</w>": 393, "du": 394, "mor": 395, "li": 396, "ir": 397, "ural</w>": 398, "?</w>": 399, "angu": 400, "anguage</w>": 401, "mean": 402, "for</w>": 403, "on</w>": 404, "ation.</w>": 405, "pre": 406, "est": 407, "ev": 408, "gen": 409, "en</w>": 410, "po": 411, "as</w>": 412, "proc": 413, "ran": 414, "Wh": 415, "What</w>": 416, "k</w>": 417, "x</w>": 418, "ds</w>": 419, "ap": 420, "ess": 421, "pe": 422, "all</w>": 423, "squ": 424, "squar": 425, "ff": 426, "ms</w>": 427, "art": 428, "comp": 429, "wh": 430, "ach": 431, "cl": 432, "es,</w>": 433, "und": 434, "enti": 435, "able</w>": 436, "language</w>": 437, "ers": 438, "ers</w>": 439, "int": 440, "learn": 441, "de": 442, "tra": 443, "now": 444, "model": 445, "mm": 446, "sh": 447, "act": 448, "ect": 449, "concl": 450, "conclus": 451, "ive</w>": 452, "ates</w>": 453, "chang": 454, "ist": 455, "ilit": 456, "gra": 457, "av": 458, "ep": 459, "tran": 460, "trans": 461, "know": 462, "th</w>": 463, "Q:</w>": 464, "A:</w>": 465, "To</w>": 466, "ct</w>": 467, "gh</w>": 468, "vol": 469, "gener": 470, "fic</w>": 471, "thes": 472, "rel": 473, "out</w>": 474, "ivers": 475, "with</w>": 476, "als</w>": 477, "ta": 478, "ble": 479, "use</w>": 480, "ele": 481, "od": 482, "comput": 483, "process": 484, "data</w>": 485, "los": 486, "led": 487, "ledg": 488, "fo": 489, "car": 490, "cul": 491, "ar</w>": 492, "ru": 493, "ob": 494, "thro": 495, "throu": 496, "through</w>": 497, "ves</w>": 498, "quest": 499, "alu": 500, "conclusion": 501, "reas": 502, "reason": 503, "cr": 504, "man": 505, "In": 506, "the": 507, "or</w>": 508, "ly</w>": 509, "les</w>": 510, "ics</w>": 511, "squared</w>": 512, "num": 513, "numb": 514, "19": 515, "stu": 516, "res": 517, "net": 518, "networ": 519, "bas": 520, "om": 521, "it</w>": 522, "ment": 523, "y,</w>": 524, "ine</w>": 525, "data": 526, "transform": 527, "knowledg": 528, "ld</w>": 529, "ism</w>": 530, "la": 531, "og": 532, "ence</w>": 533, "uses</w>": 534, "hum": 535, "desc": 536, "ws</w>": 537, "w</w>": 538, "log": 539, "ther</w>": 540, "spe": 541, "sci": 542, "hy": 543, "hypo": 544, "hypothes": 545, "ig": 546, "ca": 547, "one</w>": 548, "univers": 549, "atter": 550, "us</w>": 551, "ffer": 552, "ant": 553, "ures</w>": 554, "sequ": 555, "ences</w>": 556, "ce</w>": 557, "sol": 558, "proble": 559, "achine</w>": 560, "ize</w>": 561, "ention</w>": 562, "over": 563, "est</w>": 564, "centur": 565, "En": 566, "means</w>": 567, "comm": 568, "commun": 569, "communic": 570, "cult": 571, "descri": 572, "describ": 573, "read": 574, "vers": 575, "ing.</w>": 576, "ence,</w>": 577, "conclusions.</w>": 578, "ess</w>": 579, "De": 580, "prin": 581, "princi": 582, "principl": 583, "So": 584, "Indu": 585, "obs": 586, "obser": 587, "observ": 588, "theor": 589, "fir": 590, "imp": 591, "ari": 592, "ma": 593, "ve</w>": 594, "without</w>": 595, "using</w>": 596, "equals</w>": 597, "ed.</w>": 598, "div": 599, "ib": 600, "3,</w>": 601, "studi": 602, "studies</w>": 603, "fin": 604, "ral</w>": 605, "abilit": 606, "neural</w>": 607, "we": 608, "ack": 609, "gradi": 610, "0</w>": 611, "ithms</w>": 612, "ys": 613, "ine,</w>": 614, "gu": 615, "nat": 616, "ill": 617, "part": 618, "ions</w>": 619, "ep</w>": 620, "learning</w>": 621, "ks</w>": 622, "data.</w>": 623, "col": 624, "pt": 625, "world</w>": 626, "emp": 627, "ju": 628, "sent": 629, "et</w>": 630, "human": 631, "fe": 632, "ide": 633, "Wor": 634, "ry</w>": 635, "ure</w>": 636, "tex": 637, "text": 638, "stru": 639, "struct": 640, "su": 641, "ary</w>": 642, "cis": 643, "thin": 644, "think": 645, "ions,</w>": 646, "ether</w>": 647, "speci": 648, "specific</w>": 649, "ations</w>": 650, "It</w>": 651, "ther": 652, "patter": 653, "pattern": 654, "yth": 655, "sel": 656, "meas": 657, "measures</w>": 658, "cer": 659, "certa": 660, "network</w>": 661, "back": 662, "prop": 663, "propag": 664, "exp": 665, "ation,</w>": 666, "is,</w>": 667, "elect": 668, "sequences</w>": 669, "ution</w>": 670, "ity.</w>": 671, "gan": 672, "um</w>": 673, "beh": 674, "behav": 675, "behavi": 676, "ti": 677, "sy": 678, "light": 679, "into</w>": 680, "gor": 681, "learn</w>": 682, "tention</w>": 683, "par": 684, "alle": 685, "differ": 686, "I</w>": 687, "ant</w>": 688, "problem</w>": 689, "was</w>": 690, "ies</w>": 691, "pol": 692, "ever": 693, "gl": 694, "h</w>": 695, "communicate</w>": 696, "ghts,</w>": 697, "meaning</w>": 698, "aped</w>": 699, "forms</w>": 700, "action</w>": 701, "b</w>": 702, "new</w>": 703, "precis": 704, "rit": 705, "invol": 706, "involves</w>": 707, "evalu": 708, "ating</w>": 709, "prem": 710, "premis": 711, "ctive</w>": 712, "reasoning</w>": 713, "moves</w>": 714, "general</w>": 715, "principles</w>": 716, "mort": 717, "Socr": 718, "Socrates</w>": 719, "scienti": 720, "scientific</w>": 721, "meth": 722, "metho": 723, "der": 724, "deriv": 725, "Ex": 726, "perim": 727, "periment": 728, "si": 729, "fy</w>": 730, "Tw": 731, "Two</w>": 732, "ables</w>": 733, "them": 734, "universe.</w>": 735, "describes</w>": 736, "ion.</w>": 737, "Pyth": 738, "ght</w>": 739, "plus</w>": 740, "c</w>": 741, "squared.</w>": 742, "ime</w>": 743, "numbers</w>": 744, "only</w>": 745, "ves.</w>": 746, "firs": 747, "first</w>": 748, "7,</w>": 749, "change</w>": 750, "acc": 751, "finds</w>": 752, ";</w>": 753, "inte": 754, "integ": 755, "St": 756, "an,</w>": 757, "medi": 758, "central</w>": 759, "end": 760, "babilit": 761, "ero</w>": 762, "in.</w>": 763, "wei": 764, "backpropag": 765, "gradient</w>": 766, "descent": 767, "1.</w>": 768, "number</w>": 769, "5</w>": 770, "2</w>": 771, "prot": 772, "ons,</w>": 773, "natural</w>": 774, "expl": 775, "iod": 776, "xim": 777, "30": 778, "meter": 779, "meters</w>": 780, "se": 781, "erg": 782, "ival": 783, "E</w>": 784, "partic": 785, "atom": 786, "atomic</w>": 787, "lim": 788, "ho": 789, "iss": 790, "izes</w>": 791, "ox": 792, "se</w>": 793, "processes</w>": 794, "gorithms</w>": 795, "-b": 796, "ici": 797, "computers</w>": 798, "being</w>": 799, "progra": 800, "many</w>": 801, "transformer</w>": 802, "attention</w>": 803, "izing</w>": 804, "cted</w>": 805, "ypt": 806, "different</w>": 807, "ilos": 808, "iloso": 809, "ilosoph": 810, "asks</w>": 811, "mental</w>": 812, "valu": 813, "moder": 814, "modern</w>": 815, "moral</w>": 816, "gover": 817, "phys": 818, "physical</w>": 819, "ot": 820, "emph": 821, "emphas": 822, "ized</w>": 823, "knowledge.</w>": 824, "hol": 825, "holds</w>": 826, "alism</w>": 827, "indiv": 828, "individ": 829, "individu": 830, "ure": 831, "cultural</w>": 832, "uring</w>": 833, "century</w>": 834, "War</w>": 835, "194": 836, "anci": 837, "ancient</w>": 838, "ated</w>": 839, "ere</w>": 840, "ment</w>": 841, "Col": 842, "Un": 843, "machine</w>": 844, "model</w>": 845, "model:</w>": 846, "y:</w>": 847, "every</w>": 848, "ast</w>": 849, "ce.</w>": 850, "thou": 851, "Words</w>": 852, "carry</w>": 853, "text.</w>": 854, "Gra": 855, "sentenc": 856, "sub": 857, "oc": 858, "word</w>": 859, "meaning.</w>": 860, "arg": 861, "val": 862, "id</w>": 863, "lows</w>": 864, "logic": 865, "logicall": 866, "whether</w>": 867, "then</w>": 868, "under": 869, "test": 870, "pred": 871, "predic": 872, "predict": 873, "desig": 874, "do": 875, "does</w>": 876, "ot</w>": 877, "caus": 878, "accum": 879, "accumul": 880, "under</w>": 881, "cur": 882, "ative</w>": 883, "respe": 884, "respect</w>": 885, "uncerta": 886, "uncertaint": 887, "learns</w>": 888, "adju": 889, "adjust": 890, "weight": 891, "descent.</w>": 892, "ithm</w>": 893, "hypothesis,</w>": 894, "electr": 895, "inform": 896, "isms</w>": 897, "adv": 898, "sur": 899, "repro": 900, "reprodu": 901, "reproduce</w>": 902, "atel": 903, "ste": 904, "ity</w>": 905, "antum</w>": 906, "mech": 907, "mechan": 908, "behavior</w>": 909, "exh": 910, "exhib": 911, "exhibit</w>": 912, "e-": 913, "p</w>": 914, "organ": 915, "memor": 916, "ed": 917, "Machine</w>": 918, "lay": 919, "layers</w>": 920, "arch": 921, "archit": 922, "architect": 923, "self": 924, "l</w>": 925, "syst": 926, "system": 927, "systems</w>": 928, "ke</w>": 929, "ck</w>": 930, "cod": 931, "abor": 932, "inter": 933, "intercon": 934, "interconne": 935, "interconnected</w>": 936, "and": 937, "ard</w>": 938, "form</w>": 939, "cor": 940, "values,</w>": 941, "am": 942, "ce": 943, "wel": 944, "ffect": 945, "own</w>": 946, "min": 947, "ow</w>": 948, "relate</w>": 949, "ogy</w>": 950, "ure,</w>": 951, "ization</w>": 952, "oun": 953, "rop": 954, "fact": 955, "inv": 956, "ark": 957, "where</w>": 958, "eo": 959, "ing?</w>": 960, "test</w>": 961, "can</w>": 962, "para": 963, "loss</w>": 964, "when</w>": 965, "train": 966, "bu": 967, "sm": 968, "small</w>": 969, "time": 970, "quic": 971, "quick</w>": 972, "bro": 973, "brow": 974, "brown</w>": 975, "fox</w>": 976, "jump": 977, "jumps</w>": 978, "ov": 979, "over</w>": 980, "laz": 981, "lazy</w>": 982, "dog": 983, "dog.</w>": 984, "sentence</w>": 985, "let": 986, "lett": 987, "letter</w>": 988, "Engl": 989, "Englis": 990, "English</w>": 991, "alph": 992, "alphab": 993, "alphabet</w>": 994, "least</w>": 995, "once.</w>": 996, "Language</w>": 997, "whic": 998, "which</w>": 999, "humans</w>": 1000, "thoughts,</w>": 1001, "feel": 1002, "feeling": 1003, "feelings,</w>": 1004, "ideas": 1005, "ideas.</w>": 1006, "shaped</w>": 1007, "culture</w>": 1008, "context.</w>": 1009, "Gramm": 1010, "Grammar</w>": 1011, "prov": 1012, "provid": 1013, "provides</w>": 1014, "rul": 1015, "rules</w>": 1016, "construct": 1017, "constructing</w>": 1018, "sentences.</w>": 1019, "subj": 1020, "subje": 1021, "subject</w>": 1022, "performs</w>": 1023, "described</w>": 1024, "verb</w>": 1025, "obj": 1026, "object": 1027, "object.</w>": 1028, "Voc": 1029, "Vocab": 1030, "Vocabul": 1031, "Vocabulary</w>": 1032, "gro": 1033, "grows</w>": 1034, "reading</w>": 1035, "convers": 1036, "conversation.</w>": 1037, "Each": 1038, "Each</w>": 1039, "tool": 1040, "tool</w>": 1041, "expr": 1042, "express": 1043, "expressing</w>": 1044, "precise</w>": 1045, "Crit": 1046, "Critical</w>": 1047, "thinking</w>": 1048, "question": 1049, "questioning</w>": 1050, "assu": 1051, "assump": 1052, "assumpt": 1053, "assumptions,</w>": 1054, "evaluating</w>": 1055, "evid": 1056, "evidence,</w>": 1057, "forming</w>": 1058, "logical</w>": 1059, "An</w>": 1060, "argum": 1061, "argument</w>": 1062, "valid</w>": 1063, "if</w>": 1064, "conclusion</w>": 1065, "fol": 1066, "follows</w>": 1067, "logically</w>": 1068, "premises,</w>": 1069, "reg": 1070, "regar": 1071, "regard": 1072, "regardl": 1073, "regardless</w>": 1074, "premises</w>": 1075, "tru": 1076, "true.</w>": 1077, "Dedu": 1078, "Deductive</w>": 1079, "If</w>": 1080, "men</w>": 1081, "mortal</w>": 1082, "man,</w>": 1083, "mortal": 1084, "mortal.</w>": 1085, "Inductive</w>": 1086, "observations</w>": 1087, "underli": 1088, "underlies</w>": 1089, "method.</w>": 1090, "hypothesis</w>": 1091, "testable</w>": 1092, "prediction</w>": 1093, "derived</w>": 1094, "theory.</w>": 1095, "Experiment": 1096, "Experiments</w>": 1097, "design": 1098, "designed</w>": 1099, "confir": 1100, "confirm</w>": 1101, "fal": 1102, "falsi": 1103, "falsify</w>": 1104, "hypotheses.</w>": 1105, "Cor": 1106, "Correl": 1107, "Correlation</w>": 1108, "not</w>": 1109, "imply</w>": 1110, "causation.</w>": 1111, "vari": 1112, "variables</w>": 1113, "may</w>": 1114, "move</w>": 1115, "tog": 1116, "together</w>": 1117, "causing</w>": 1118, "other": 1119, "other.</w>": 1120, "Ma": 1121, "Mathem": 1122, "Mathemat": 1123, "Mathematics</w>": 1124, "patterns,</w>": 1125, "structur": 1126, "structures,</w>": 1127, "relation": 1128, "relationsh": 1129, "relationshi": 1130, "relationship": 1131, "relationships</w>": 1132, "precision.</w>": 1133, "Pythag": 1134, "Pythagor": 1135, "Pythagore": 1136, "Pythagorean</w>": 1137, "theore": 1138, "theorem</w>": 1139, "states</w>": 1140, "right</w>": 1141, "tri": 1142, "triang": 1143, "triangle": 1144, "triangle,</w>": 1145, "Pr": 1146, "Prime</w>": 1147, "divis": 1148, "divisib": 1149, "divisible</w>": 1150, "themsel": 1151, "themselves.</w>": 1152, "prim": 1153, "primes</w>": 1154, "2,</w>": 1155, "5,</w>": 1156, "11": 1157, "11,</w>": 1158, "13,</w>": 1159, "17,</w>": 1160, "19.</w>": 1161, "Cal": 1162, "Calcul": 1163, "Calculus</w>": 1164, "accumulation.</w>": 1165, "Di": 1166, "Differ": 1167, "Differenti": 1168, "Differentiation</w>": 1169, "rates</w>": 1170, "change": 1171, "change;</w>": 1172, "integr": 1173, "integration</w>": 1174, "are": 1175, "areas</w>": 1176, "curves.</w>": 1177, "derivative</w>": 1178, "2x": 1179, "2x.</w>": 1180, "integral</w>": 1181, "2x</w>": 1182, "const": 1183, "constant": 1184, "constant.</w>": 1185, "Stat": 1186, "Statist": 1187, "Statistics</w>": 1188, "uncertainty.</w>": 1189, "Me": 1190, "Mean,</w>": 1191, "median,</w>": 1192, "mode</w>": 1193, "tend": 1194, "tendenc": 1195, "tendency.</w>": 1196, "Pro": 1197, "Probabilit": 1198, "Probability</w>": 1199, "rang": 1200, "ranges</w>": 1201, "zero</w>": 1202, "one.</w>": 1203, "Zero</w>": 1204, "impo": 1205, "impos": 1206, "impossi": 1207, "impossible": 1208, "impossible;</w>": 1209, "certain.</w>": 1210, "adjusting</w>": 1211, "weights</w>": 1212, "backpropagation</w>": 1213, "Bin": 1214, "Binary</w>": 1215, "dec": 1216, "decim": 1217, "decimal</w>": 1218, "10": 1219, "101": 1220, "101</w>": 1221, "bin": 1222, "binar": 1223, "binary.</w>": 1224, "Log": 1225, "Logar": 1226, "Logarithms</w>": 1227, "invers": 1228, "inverse</w>": 1229, "expon": 1230, "exponenti": 1231, "exponentiation.</w>": 1232, "logar": 1233, "logarithm</w>": 1234, "base</w>": 1235, "8</w>": 1236, "beca": 1237, "because</w>": 1238, "pow": 1239, "power</w>": 1240, "3</w>": 1241, "8.</w>": 1242, "method</w>": 1243, "observation,</w>": 1244, "experiment": 1245, "experiment,</w>": 1246, "anal": 1247, "analys": 1248, "analysis,</w>": 1249, "conclusion.</w>": 1250, "Ato": 1251, "Atoms</w>": 1252, "basic</w>": 1253, "units</w>": 1254, "matter": 1255, "matter.</w>": 1256, "The": 1257, "They</w>": 1258, "cons": 1259, "consis": 1260, "consist</w>": 1261, "protons,</w>": 1262, "neut": 1263, "neutr": 1264, "neutrons,</w>": 1265, "electron": 1266, "electrons.</w>": 1267, "DN": 1268, "DNA</w>": 1269, "carri": 1270, "carries</w>": 1271, "gene": 1272, "genet": 1273, "genetic</w>": 1274, "information</w>": 1275, "four": 1276, "four</w>": 1277, "bases": 1278, "bases:</w>": 1279, "aden": 1280, "adenine,</w>": 1281, "thy": 1282, "thym": 1283, "thymine,</w>": 1284, "guan": 1285, "guanine,</w>": 1286, "cy": 1287, "cyto": 1288, "cytos": 1289, "cytosin": 1290, "cytosine.</w>": 1291, "Evol": 1292, "Evolution</w>": 1293, "select": 1294, "selection</w>": 1295, "expla": 1296, "explain": 1297, "explains</w>": 1298, "biod": 1299, "biodivers": 1300, "biodiversity.</w>": 1301, "Or": 1302, "Organ": 1303, "Organisms</w>": 1304, "advant": 1305, "advantag": 1306, "advantage": 1307, "advantageou": 1308, "advantageous</w>": 1309, "traits</w>": 1310, "surv": 1311, "survive</w>": 1312, "more.</w>": 1313, "speed</w>": 1314, "light</w>": 1315, "vac": 1316, "vacu": 1317, "vacuum</w>": 1318, "appro": 1319, "approxim": 1320, "approximatel": 1321, "approximately</w>": 1322, "300</w>": 1323, "mill": 1324, "million</w>": 1325, "per</w>": 1326, "secon": 1327, "second.</w>": 1328, "Ein": 1329, "Einste": 1330, "Einstein": 1331, "Einstein'": 1332, "Einstein's</w>": 1333, "theory</w>": 1334, "relat": 1335, "relativ": 1336, "relativity</w>": 1337, "show": 1338, "shows</w>": 1339, "mas": 1340, "mass</w>": 1341, "energ": 1342, "energy</w>": 1343, "equival": 1344, "equivalent": 1345, "equivalent:</w>": 1346, "mc</w>": 1347, "Qu": 1348, "Quantum</w>": 1349, "mechanics</w>": 1350, "particles</w>": 1351, "sc": 1352, "scal": 1353, "scale.</w>": 1354, "Part": 1355, "Partic": 1356, "Particles</w>": 1357, "wav": 1358, "wave-": 1359, "wave-partic": 1360, "wave-particle</w>": 1361, "dual": 1362, "duality.</w>": 1363, "Clim": 1364, "Climate</w>": 1365, "dr": 1366, "driv": 1367, "driven</w>": 1368, "gre": 1369, "green": 1370, "greenho": 1371, "greenhouse</w>": 1372, "gas</w>": 1373, "emiss": 1374, "emissions</w>": 1375, "trap</w>": 1376, "he": 1377, "heat</w>": 1378, "atmo": 1379, "atmos": 1380, "atmosph": 1381, "atmospher": 1382, "atmosphere.</w>": 1383, "period": 1384, "periodic</w>": 1385, "table</w>": 1386, "organizes</w>": 1387, "element": 1388, "elements</w>": 1389, "chem": 1390, "chemical</w>": 1391, "proper": 1392, "properti": 1393, "properties.</w>": 1394, "Pho": 1395, "Photo": 1396, "Photosy": 1397, "Photosyn": 1398, "Photosynthes": 1399, "Photosynthesis</w>": 1400, "conver": 1401, "convert": 1402, "converts</w>": 1403, "sun": 1404, "sunlight": 1405, "sunlight,</w>": 1406, "carb": 1407, "carbon</w>": 1408, "diox": 1409, "dioxid": 1410, "dioxide,</w>": 1411, "wat": 1412, "water</w>": 1413, "glu": 1414, "gluco": 1415, "glucose</w>": 1416, "oxy": 1417, "oxygen": 1418, "oxygen.</w>": 1419, "computer</w>": 1420, "processing</w>": 1421, "unit": 1422, "unit,</w>": 1423, "memory,</w>": 1424, "stor": 1425, "storag": 1426, "storage.</w>": 1427, "Al": 1428, "Algorithms</w>": 1429, "step": 1430, "step-b": 1431, "step-by": 1432, "step-by-": 1433, "step-by-st": 1434, "step-by-step</w>": 1435, "proced": 1436, "procedures</w>": 1437, "solv": 1438, "solving</w>": 1439, "problem": 1440, "problems.</w>": 1441, "Eff": 1442, "Effici": 1443, "Efficient</w>": 1444, "algorithms</w>": 1445, "sav": 1446, "save</w>": 1447, "time</w>": 1448, "reso": 1449, "resour": 1450, "resourc": 1451, "resources.</w>": 1452, "enables</w>": 1453, "explic": 1454, "explicit": 1455, "explicitly</w>": 1456, "program": 1457, "programme": 1458, "programmed.</w>": 1459, "Deep</w>": 1460, "networks</w>": 1461, "reco": 1462, "recog": 1463, "recogn": 1464, "recognize</w>": 1465, "patterns</w>": 1466, "comple": 1467, "complex</w>": 1468, "architecture</w>": 1469, "self-": 1470, "self-attention</w>": 1471, "process</w>": 1472, "paralle": 1473, "parallel": 1474, "parallel,</w>": 1475, "revol": 1476, "revolut": 1477, "revolution": 1478, "revolutionizing</w>": 1479, "processing.</w>": 1480, "Python</w>": 1481, "pop": 1482, "popul": 1483, "popular</w>": 1484, "programm": 1485, "programming</w>": 1486, "known</w>": 1487, "readabilit": 1488, "readability</w>": 1489, "versat": 1490, "versatilit": 1491, "versatility.</w>": 1492, "Vers": 1493, "Version</w>": 1494, "cont": 1495, "contro": 1496, "control</w>": 1497, "like</w>": 1498, "Git</w>": 1499, "track</w>": 1500, "changes</w>": 1501, "code</w>": 1502, "enable</w>": 1503, "coll": 1504, "collabor": 1505, "collaboration.</w>": 1506, "Inter": 1507, "Interne": 1508, "Internet</w>": 1509, "glo": 1510, "glob": 1511, "global</w>": 1512, "communicating</w>": 1513, "stand": 1514, "standard</w>": 1515, "proto": 1516, "protocol": 1517, "protocols.</w>": 1518, "Encr": 1519, "Encrypt": 1520, "Encryption</w>": 1521, "protect": 1522, "protects</w>": 1523, "transforming</w>": 1524, "unread": 1525, "unreadable</w>": 1526, "corre": 1527, "correct</w>": 1528, "ke": 1529, "key.</w>": 1530, "AP": 1531, "API": 1532, "APIs</w>": 1533, "allo": 1534, "allow</w>": 1535, "so": 1536, "sof": 1537, "soft": 1538, "softw": 1539, "software</w>": 1540, "appl": 1541, "applic": 1542, "applications</w>": 1543, "share</w>": 1544, "Ph": 1545, "Philosoph": 1546, "Philosophy</w>": 1547, "fund": 1548, "funda": 1549, "fundamental</w>": 1550, "questions</w>": 1551, "about</w>": 1552, "exist": 1553, "existence,</w>": 1554, "knowledge,</w>": 1555, "reason.</w>": 1556, "Des": 1557, "Desc": 1558, "Descart": 1559, "Descartes</w>": 1560, "wro": 1561, "wrot": 1562, "wrote": 1563, "wrote:</w>": 1564, "think,</w>": 1565, "there": 1566, "therefor": 1567, "therefore</w>": 1568, "am.</w>": 1569, "This</w>": 1570, "found": 1571, "foundation": 1572, "foundational</w>": 1573, "stat": 1574, "statem": 1575, "statement</w>": 1576, "philosoph": 1577, "philosophy.</w>": 1578, "Eth": 1579, "Ethics</w>": 1580, "govern</w>": 1581, "behavior": 1582, "behavior.</w>": 1583, "right": 1584, "right?</w>": 1585, "go": 1586, "good": 1587, "good?</w>": 1588, "Pl": 1589, "Plat": 1590, "Plato</w>": 1591, "bel": 1592, "beli": 1593, "believ": 1594, "believed</w>": 1595, "ideal</w>": 1596, "bey": 1597, "beyon": 1598, "beyond</w>": 1599, "we</w>": 1600, "perce": 1601, "perceiv": 1602, "perceive.</w>": 1603, "Ari": 1604, "Arist": 1605, "Aristot": 1606, "Aristotle</w>": 1607, "emphasized</w>": 1608, "observation</w>": 1609, "empir": 1610, "empirical</w>": 1611, "stud": 1612, "study</w>": 1613, "basis</w>": 1614, "Ut": 1615, "Utilit": 1616, "Utilitari": 1617, "Utilitarian": 1618, "Utilitarianism</w>": 1619, "best</w>": 1620, "maxim": 1621, "maximizes</w>": 1622, "overall</w>": 1623, "well": 1624, "well-": 1625, "well-being</w>": 1626, "affect": 1627, "affected.</w>": 1628, "Kant</w>": 1629, "argu": 1630, "argued</w>": 1631, "actions</w>": 1632, "mus": 1633, "must</w>": 1634, "be</w>": 1635, "guid": 1636, "guided</w>": 1637, "universal": 1638, "universaliz": 1639, "universalizable</w>": 1640, "principles.</w>": 1641, "Exist": 1642, "Existenti": 1643, "Existentialism</w>": 1644, "individuals</w>": 1645, "cre": 1646, "create</w>": 1647, "their": 1648, "their</w>": 1649, "indifferent</w>": 1650, "mind": 1651, "mind-b": 1652, "mind-bod": 1653, "mind-body</w>": 1654, "how</w>": 1655, "exper": 1656, "experi": 1657, "experiences</w>": 1658, "bra": 1659, "brain.</w>": 1660, "Ep": 1661, "Epist": 1662, "Epistem": 1663, "Epistemol": 1664, "Epistemology</w>": 1665, "nature,</w>": 1666, "sco": 1667, "scop": 1668, "scope,</w>": 1669, "limits</w>": 1670, "human</w>": 1671, "Hum": 1672, "Human</w>": 1673, "civ": 1674, "civil": 1675, "civilization</w>": 1676, "emerg": 1677, "emerged</w>": 1678, "aroun": 1679, "around</w>": 1680, "300": 1681, "3000</w>": 1682, "BC": 1683, "BCE</w>": 1684, "Mes": 1685, "Meso": 1686, "Mesopo": 1687, "Mesopota": 1688, "Mesopotam": 1689, "Mesopotami": 1690, "Mesopotamia": 1691, "Mesopotamia,</w>": 1692, "Eg": 1693, "Egypt": 1694, "Egypt,</w>": 1695, "Indus</w>": 1696, "Valle": 1697, "Valley,</w>": 1698, "Ch": 1699, "Chin": 1700, "China": 1701, "China.</w>": 1702, "Ren": 1703, "Rena": 1704, "Renaiss": 1705, "Renaissan": 1706, "Renaissance</w>": 1707, "reb": 1708, "rebir": 1709, "rebirth</w>": 1710, "Eu": 1711, "Europ": 1712, "Europe</w>": 1713, "14": 1714, "14th</w>": 1715, "17": 1716, "17th</w>": 1717, "centuri": 1718, "centuries,</w>": 1719, "emphasizing</w>": 1720, "humanism</w>": 1721, "art.</w>": 1722, "Indust": 1723, "Industri": 1724, "Industrial</w>": 1725, "Rev": 1726, "Revol": 1727, "Revolution</w>": 1728, "transformed</w>": 1729, "econ": 1730, "econom": 1731, "economies</w>": 1732, "agr": 1733, "agrari": 1734, "agrarian</w>": 1735, "manu": 1736, "manufact": 1737, "manufacturing</w>": 1738, "18": 1739, "18th</w>": 1740, "onw": 1741, "onwar": 1742, "onward.</w>": 1743, "World</w>": 1744, "ended</w>": 1745, "1945</w>": 1746, "defe": 1747, "defeat</w>": 1748, "Na": 1749, "Naz": 1750, "Nazi": 1751, "Nazi</w>": 1752, "Ger": 1753, "Germany</w>": 1754, "Imp": 1755, "Imper": 1756, "Imperi": 1757, "Imperial</w>": 1758, "Jap": 1759, "Japan": 1760, "Japan.</w>": 1761, "invention</w>": 1762, "print": 1763, "printing</w>": 1764, "press</w>": 1765, "15": 1766, "15th</w>": 1767, "demo": 1768, "democr": 1769, "democrat": 1770, "democratized</w>": 1771, "knowledge</w>": 1772, "fu": 1773, "fuele": 1774, "fueled</w>": 1775, "Re": 1776, "Reform": 1777, "Reformation.</w>": 1778, "fall</w>": 1779, "Rom": 1780, "Roman</w>": 1781, "Emp": 1782, "Empir": 1783, "Empire</w>": 1784, "mark": 1785, "marked</w>": 1786, "transit": 1787, "transition</w>": 1788, "mediev": 1789, "medieval</w>": 1790, "hist": 1791, "histor": 1792, "history.</w>": 1793, "Demo": 1794, "Democ": 1795, "Democra": 1796, "Democrac": 1797, "Democracy</w>": 1798, "orig": 1799, "origin": 1800, "originated</w>": 1801, "Ath": 1802, "Athen": 1803, "Athens,</w>": 1804, "cit": 1805, "citiz": 1806, "citizen": 1807, "citizens</w>": 1808, "vot": 1809, "voted</w>": 1810, "laws</w>": 1811, "polici": 1812, "policies.</w>": 1813, "Enlight": 1814, "Enlighten": 1815, "Enlightenment</w>": 1816, "promo": 1817, "promot": 1818, "promoted</w>": 1819, "reason,</w>": 1820, "science,</w>": 1821, "individual</w>": 1822, "rights,</w>": 1823, "inf": 1824, "infl": 1825, "influ": 1826, "influenc": 1827, "influencing</w>": 1828, "govern": 1829, "government": 1830, "governments.</w>": 1831, "Colon": 1832, "Coloni": 1833, "Colonialism</w>": 1834, "resh": 1835, "reshaped</w>": 1836, "conquest": 1837, "conquest,</w>": 1838, "explo": 1839, "exploit": 1840, "exploitation,</w>": 1841, "exchang": 1842, "exchange.</w>": 1843, "Cold</w>": 1844, "geo": 1845, "geopol": 1846, "geopolit": 1847, "geopolitical</w>": 1848, "rival": 1849, "rivalry</w>": 1850, "bet": 1851, "betwe": 1852, "between</w>": 1853, "Unit": 1854, "United</w>": 1855, "States</w>": 1856, "Sov": 1857, "Sovi": 1858, "Soviet</w>": 1859, "Union</w>": 1860, "1947": 1861, "1947</w>": 1862, "199": 1863, "1991.</w>": 1864, "cap": 1865, "capit": 1866, "capital</w>": 1867, "Fran": 1868, "learning?</w>": 1869, "impro": 1870, "improve</w>": 1871, "k?</w>": 1872, "parts</w>": 1873, "sequence</w>": 1874, "Turing</w>": 1875, "opt": 1876, "parameters</w>": 1877, "probabilit": 1878, "probabilities</w>": 1879, "generate</w>": 1880, "coh": 1881, "coher": 1882, "fit": 1883, "fitt": 1884, "training</w>": 1885, "alize</w>": 1886, "gradient": 1887, "rele": 1888, "relev": 1889, "relevant</w>": 1890, "train</w>": 1891, "lect</w>": 1892, "text,</w>": 1893, "clear": 1894, "clearl": 1895, "solut": 1896, "evaluate</w>": 1897, "imple": 1898, "implement</w>": 1899, "writ": 1900, "rev": 1901, "ing,</w>": 1902, "g</w>": 1903, "sk": 1904, "skill": 1905, "oo": 1906, "buil": 1907, "data,</w>": 1908, "compute</w>": 1909, "up": 1910, "che": 1911, "star": 1912, "itor</w>": 1913, "beg": 1914, "time.</w>": 1915, "tain": 1916, "br": 1917, "you": 1918, "you</w>": 1919, "France": 1920, "France?</w>": 1921, "France</w>": 1922, "Par": 1923, "Paris": 1924, "Paris.</w>": 1925, "bran": 1926, "branch": 1927, "branch</w>": 1928, "AI</w>": 1929, "perform": 1930, "performan": 1931, "performance.</w>": 1932, "How</w>": 1933, "work?</w>": 1934, "mechanisms</w>": 1935, "sim": 1936, "simul": 1937, "simult": 1938, "simultan": 1939, "simultaneo": 1940, "simultaneous": 1941, "simultaneousl": 1942, "simultaneously.</w>": 1943, "test?</w>": 1944, "intel": 1945, "intelli": 1946, "intellig": 1947, "intelligent</w>": 1948, "indi": 1949, "indist": 1950, "indisting": 1951, "indistingu": 1952, "indistinguis": 1953, "indistinguish": 1954, "indistinguishable</w>": 1955, "human.</w>": 1956, "descent?</w>": 1957, "Gradi": 1958, "Gradient</w>": 1959, "descent</w>": 1960, "optim": 1961, "optimization</w>": 1962, "algor": 1963, "algorithm</w>": 1964, "adjusts</w>": 1965, "dire": 1966, "direct": 1967, "direction</w>": 1968, "steep": 1969, "steepest</w>": 1970, "redu": 1971, "reduct": 1972, "reduction.</w>": 1973, "model?</w>": 1974, "ass": 1975, "assig": 1976, "assign": 1977, "assigns</w>": 1978, "words</w>": 1979, "coherent</w>": 1980, "overfitt": 1981, "overfitting?</w>": 1982, "Over": 1983, "Overfitt": 1984, "Overfitting</w>": 1985, "occur": 1986, "occurs</w>": 1987, "too</w>": 1988, "well</w>": 1989, "fa": 1990, "fail": 1991, "fails</w>": 1992, "generalize</w>": 1993, "backpropagation": 1994, "backpropagation?</w>": 1995, "Back": 1996, "Backpropag": 1997, "Backpropagation</w>": 1998, "computes</w>": 1999, "gradients</w>": 2000, "cha": 2001, "chain</w>": 2002, "rule": 2003, "rule.</w>": 2004, "deep</w>": 2005, "At": 2006, "Attention</w>": 2007, "allows</w>": 2008, "models</w>": 2009, "foc": 2010, "focus</w>": 2011, "inp": 2012, "inpu": 2013, "input</w>": 2014, "mak": 2015, "making</w>": 2016, "prediction": 2017, "predictions.</w>": 2018, "network?</w>": 2019, "neur": 2020, "neuron": 2021, "neurons</w>": 2022, "repr": 2023, "repres": 2024, "represent": 2025, "representations</w>": 2026, "collect</w>": 2027, "corp": 2028, "corpus": 2029, "corpus,</w>": 2030, "tok": 2031, "token": 2032, "tokenize</w>": 2033, "init": 2034, "initi": 2035, "initialize</w>": 2036, "model,</w>": 2037, "minim": 2038, "minimize</w>": 2039, "cro": 2040, "cros": 2041, "cross": 2042, "cross-": 2043, "cross-ent": 2044, "cross-entrop": 2045, "cross-entropy</w>": 2046, "solve</w>": 2047}, "inv_vocab": {"0": "<PAD>", "1": "<UNK>", "2": "<BOS>", "3": "<EOS>", "4": "<MASK>", "5": "\u0000", "6": "\u0001", "7": "\u0002", "8": "\u0003", "9": "\u0004", "10": "\u0005", "11": "\u0006", "12": "\u0007", "13": "\b", "14": "\t", "15": "\n", "16": "\u000b", "17": "\f", "18": "\r", "19": "\u000e", "20": "\u000f", "21": "\u0010", "22": "\u0011", "23": "\u0012", "24": "\u0013", "25": "\u0014", "26": "\u0015", "27": "\u0016", "28": "\u0017", "29": "\u0018", "30": "\u0019", "31": "\u001a", "32": "\u001b", "33": "\u001c", "34": "\u001d", "35": "\u001e", "36": "\u001f", "37": " ", "38": "!", "39": "\"", "40": "#", "41": "$", "42": "%", "43": "&", "44": "'", "45": "(", "46": ")", "47": "*", "48": "+", "49": ",", "50": "-", "51": ".", "52": "/", "53": "0", "54": "1", "55": "2", "56": "3", "57": "4", "58": "5", "59": "6", "60": "7", "61": "8", "62": "9", "63": ":", "64": ";", "65": "<", "66": "=", "67": ">", "68": "?", "69": "@", "70": "A", "71": "B", "72": "C", "73": "D", "74": "E", "75": "F", "76": "G", "77": "H", "78": "I", "79": "J", "80": "K", "81": "L", "82": "M", "83": "N", "84": "O", "85": "P", "86": "Q", "87": "R", "88": "S", "89": "T", "90": "U", "91": "V", "92": "W", "93": "X", "94": "Y", "95": "Z", "96": "[", "97": "\\", "98": "]", "99": "^", "100": "_", "101": "`", "102": "a", "103": "b", "104": "c", "105": "d", "106": "e", "107": "f", "108": "g", "109": "h", "110": "i", "111": "j", "112": "k", "113": "l", "114": "m", "115": "n", "116": "o", "117": "p", "118": "q", "119": "r", "120": "s", "121": "t", "122": "u", "123": "v", "124": "w", "125": "x", "126": "y", "127": "z", "128": "{", "129": "|", "130": "}", "131": "~", "132": "\u007f", "133": "\u0080", "134": "\u0081", "135": "\u0082", "136": "\u0083", "137": "\u0084", "138": "\u0085", "139": "\u0086", "140": "\u0087", "141": "\u0088", "142": "\u0089", "143": "\u008a", "144": "\u008b", "145": "\u008c", "146": "\u008d", "147": "\u008e", "148": "\u008f", "149": "\u0090", "150": "\u0091", "151": "\u0092", "152": "\u0093", "153": "\u0094", "154": "\u0095", "155": "\u0096", "156": "\u0097", "157": "\u0098", "158": "\u0099", "159": "\u009a", "160": "\u009b", "161": "\u009c", "162": "\u009d", "163": "\u009e", "164": "\u009f", "165": "\u00a0", "166": "\u00a1", "167": "\u00a2", "168": "\u00a3", "169": "\u00a4", "170": "\u00a5", "171": "\u00a6", "172": "\u00a7", "173": "\u00a8", "174": "\u00a9", "175": "\u00aa", "176": "\u00ab", "177": "\u00ac", "178": "\u00ad", "179": "\u00ae", "180": "\u00af", "181": "\u00b0", "182": "\u00b1", "183": "\u00b2", "184": "\u00b3", "185": "\u00b4", "186": "\u00b5", "187": "\u00b6", "188": "\u00b7", "189": "\u00b8", "190": "\u00b9", "191": "\u00ba", "192": "\u00bb", "193": "\u00bc", "194": "\u00bd", "195": "\u00be", "196": "\u00bf", "197": "\u00c0", "198": "\u00c1", "199": "\u00c2", "200": "\u00c3", "201": "\u00c4", "202": "\u00c5", "203": "\u00c6", "204": "\u00c7", "205": "\u00c8", "206": "\u00c9", "207": "\u00ca", "208": "\u00cb", "209": "\u00cc", "210": "\u00cd", "211": "\u00ce", "212": "\u00cf", "213": "\u00d0", "214": "\u00d1", "215": "\u00d2", "216": "\u00d3", "217": "\u00d4", "218": "\u00d5", "219": "\u00d6", "220": "\u00d7", "221": "\u00d8", "222": "\u00d9", "223": "\u00da", "224": "\u00db", "225": "\u00dc", "226": "\u00dd", "227": "\u00de", "228": "\u00df", "229": "\u00e0", "230": "\u00e1", "231": "\u00e2", "232": "\u00e3", "233": "\u00e4", "234": "\u00e5", "235": "\u00e6", "236": "\u00e7", "237": "\u00e8", "238": "\u00e9", "239": "\u00ea", "240": "\u00eb", "241": "\u00ec", "242": "\u00ed", "243": "\u00ee", "244": "\u00ef", "245": "\u00f0", "246": "\u00f1", "247": "\u00f2", "248": "\u00f3", "249": "\u00f4", "250": "\u00f5", "251": "\u00f6", "252": "\u00f7", "253": "\u00f8", "254": "\u00f9", "255": "\u00fa", "256": "\u00fb", "257": "\u00fc", "258": "\u00fd", "259": "\u00fe", "260": "\u00ff", "261": "s</w>", "262": "e</w>", "263": "in", "264": "an", "265": "th", "266": "on", "267": ".</w>", "268": "at", "269": "d</w>", "270": "er", "271": "en", "272": "al", "273": ",</w>", "274": "ar", "275": "or", "276": "ion", "277": "es", "278": "ro", "279": "t</w>", "280": "es</w>", "281": "the</w>", "282": "y</w>", "283": "and</w>", "284": "ing", "285": "ic", "286": "a</w>", "287": "re", "288": "f</w>", "289": "ing</w>", "290": "al</w>", "291": "le", "292": "o</w>", "293": "of</w>", "294": "it", "295": "ed</w>", "296": "is</w>", "297": "ent", "298": "m</w>", "299": "st", "300": "ion</w>", "301": "ur", "302": "pro", "303": "Th", "304": "The</w>", "305": "ol", "306": "to</w>", "307": "un", "308": "iv", "309": "at</w>", "310": "as", "311": "me", "312": "ct", "313": "in</w>", "314": "us", "315": "is", "316": "for", "317": "qu", "318": "con", "319": ":</w>", "320": "ch", "321": "er</w>", "322": "co", "323": "el", "324": "mo", "325": "mp", "326": "e.</w>", "327": "ab", "328": "gh", "329": "ra", "330": "ang", "331": "ex", "332": "ation", "333": "fro", "334": "from</w>", "335": "enc", "336": "ag", "337": "lo", "338": "di", "339": "ne", "340": "ent</w>", "341": "are</w>", "342": "im", "343": "iz", "344": "an</w>", "345": "ver", "346": "s,</w>", "347": "ith", "348": "n</w>", "349": "um", "350": "ci", "351": "y.</w>", "352": "id", "353": "il", "354": "ut", "355": "by</w>", "356": "ow", "357": "form", "358": "ri", "359": "wor", "360": "e,</w>", "361": "s.</w>", "362": "ic</w>", "363": "that</w>", "364": "ate</w>", "365": "ul", "366": "A</w>", "367": "le</w>", "368": "ation</w>", "369": "lear", "370": "pl", "371": "em", "372": "ter", "373": "mod", "374": "be", "375": "dat", "376": "ou", "377": "es.</w>", "378": "per", "379": "all", "380": "d.</w>", "381": "ght", "382": "des", "383": "to", "384": "pr", "385": "its</w>", "386": "with", "387": "equ", "388": "ac", "389": "cent", "390": "ph", "391": "age</w>", "392": "ad", "393": "ical</w>", "394": "du", "395": "mor", "396": "li", "397": "ir", "398": "ural</w>", "399": "?</w>", "400": "angu", "401": "anguage</w>", "402": "mean", "403": "for</w>", "404": "on</w>", "405": "ation.</w>", "406": "pre", "407": "est", "408": "ev", "409": "gen", "410": "en</w>", "411": "po", "412": "as</w>", "413": "proc", "414": "ran", "415": "Wh", "416": "What</w>", "417": "k</w>", "418": "x</w>", "419": "ds</w>", "420": "ap", "421": "ess", "422": "pe", "423": "all</w>", "424": "squ", "425": "squar", "426": "ff", "427": "ms</w>", "428": "art", "429": "comp", "430": "wh", "431": "ach", "432": "cl", "433": "es,</w>", "434": "und", "435": "enti", "436": "able</w>", "437": "language</w>", "438": "ers", "439": "ers</w>", "440": "int", "441": "learn", "442": "de", "443": "tra", "444": "now", "445": "model", "446": "mm", "447": "sh", "448": "act", "449": "ect", "450": "concl", "451": "conclus", "452": "ive</w>", "453": "ates</w>", "454": "chang", "455": "ist", "456": "ilit", "457": "gra", "458": "av", "459": "ep", "460": "tran", "461": "trans", "462": "know", "463": "th</w>", "464": "Q:</w>", "465": "A:</w>", "466": "To</w>", "467": "ct</w>", "468": "gh</w>", "469": "vol", "470": "gener", "471": "fic</w>", "472": "thes", "473": "rel", "474": "out</w>", "475": "ivers", "476": "with</w>", "477": "als</w>", "478": "ta", "479": "ble", "480": "use</w>", "481": "ele", "482": "od", "483": "comput", "484": "process", "485": "data</w>", "486": "los", "487": "led", "488": "ledg", "489": "fo", "490": "car", "491": "cul", "492": "ar</w>", "493": "ru", "494": "ob", "495": "thro", "496": "throu", "497": "through</w>", "498": "ves</w>", "499": "quest", "500": "alu", "501": "conclusion", "502": "reas", "503": "reason", "504": "cr", "505": "man", "506": "In", "507": "the", "508": "or</w>", "509": "ly</w>", "510": "les</w>", "511": "ics</w>", "512": "squared</w>", "513": "num", "514": "numb", "515": "19", "516": "stu", "517": "res", "518": "net", "519": "networ", "520": "bas", "521": "om", "522": "it</w>", "523": "ment", "524": "y,</w>", "525": "ine</w>", "526": "data", "527": "transform", "528": "knowledg", "529": "ld</w>", "530": "ism</w>", "531": "la", "532": "og", "533": "ence</w>", "534": "uses</w>", "535": "hum", "536": "desc", "537": "ws</w>", "538": "w</w>", "539": "log", "540": "ther</w>", "541": "spe", "542": "sci", "543": "hy", "544": "hypo", "545": "hypothes", "546": "ig", "547": "ca", "548": "one</w>", "549": "univers", "550": "atter", "551": "us</w>", "552": "ffer", "553": "ant", "554": "ures</w>", "555": "sequ", "556": "ences</w>", "557": "ce</w>", "558": "sol", "559": "proble", "560": "achine</w>", "561": "ize</w>", "562": "ention</w>", "563": "over", "564": "est</w>", "565": "centur", "566": "En", "567": "means</w>", "568": "comm", "569": "commun", "570": "communic", "571": "cult", "572": "descri", "573": "describ", "574": "read", "575": "vers", "576": "ing.</w>", "577": "ence,</w>", "578": "conclusions.</w>", "579": "ess</w>", "580": "De", "581": "prin", "582": "princi", "583": "principl", "584": "So", "585": "Indu", "586": "obs", "587": "obser", "588": "observ", "589": "theor", "590": "fir", "591": "imp", "592": "ari", "593": "ma", "594": "ve</w>", "595": "without</w>", "596": "using</w>", "597": "equals</w>", "598": "ed.</w>", "599": "div", "600": "ib", "601": "3,</w>", "602": "studi", "603": "studies</w>", "604": "fin", "605": "ral</w>", "606": "abilit", "607": "neural</w>", "608": "we", "609": "ack", "610": "gradi", "611": "0</w>", "612": "ithms</w>", "613": "ys", "614": "ine,</w>", "615": "gu", "616": "nat", "617": "ill", "618": "part", "619": "ions</w>", "620": "ep</w>", "621": "learning</w>", "622": "ks</w>", "623": "data.</w>", "624": "col", "625": "pt", "626": "world</w>", "627": "emp", "628": "ju", "629": "sent", "630": "et</w>", "631": "human", "632": "fe", "633": "ide", "634": "Wor", "635": "ry</w>", "636": "ure</w>", "637": "tex", "638": "text", "639": "stru", "640": "struct", "641": "su", "642": "ary</w>", "643": "cis", "644": "thin", "645": "think", "646": "ions,</w>", "647": "ether</w>", "648": "speci", "649": "specific</w>", "650": "ations</w>", "651": "It</w>", "652": "ther", "653": "patter", "654": "pattern", "655": "yth", "656": "sel", "657": "meas", "658": "measures</w>", "659": "cer", "660": "certa", "661": "network</w>", "662": "back", "663": "prop", "664": "propag", "665": "exp", "666": "ation,</w>", "667": "is,</w>", "668": "elect", "669": "sequences</w>", "670": "ution</w>", "671": "ity.</w>", "672": "gan", "673": "um</w>", "674": "beh", "675": "behav", "676": "behavi", "677": "ti", "678": "sy", "679": "light", "680": "into</w>", "681": "gor", "682": "learn</w>", "683": "tention</w>", "684": "par", "685": "alle", "686": "differ", "687": "I</w>", "688": "ant</w>", "689": "problem</w>", "690": "was</w>", "691": "ies</w>", "692": "pol", "693": "ever", "694": "gl", "695": "h</w>", "696": "communicate</w>", "697": "ghts,</w>", "698": "meaning</w>", "699": "aped</w>", "700": "forms</w>", "701": "action</w>", "702": "b</w>", "703": "new</w>", "704": "precis", "705": "rit", "706": "invol", "707": "involves</w>", "708": "evalu", "709": "ating</w>", "710": "prem", "711": "premis", "712": "ctive</w>", "713": "reasoning</w>", "714": "moves</w>", "715": "general</w>", "716": "principles</w>", "717": "mort", "718": "Socr", "719": "Socrates</w>", "720": "scienti", "721": "scientific</w>", "722": "meth", "723": "metho", "724": "der", "725": "deriv", "726": "Ex", "727": "perim", "728": "periment", "729": "si", "730": "fy</w>", "731": "Tw", "732": "Two</w>", "733": "ables</w>", "734": "them", "735": "universe.</w>", "736": "describes</w>", "737": "ion.</w>", "738": "Pyth", "739": "ght</w>", "740": "plus</w>", "741": "c</w>", "742": "squared.</w>", "743": "ime</w>", "744": "numbers</w>", "745": "only</w>", "746": "ves.</w>", "747": "firs", "748": "first</w>", "749": "7,</w>", "750": "change</w>", "751": "acc", "752": "finds</w>", "753": ";</w>", "754": "inte", "755": "integ", "756": "St", "757": "an,</w>", "758": "medi", "759": "central</w>", "760": "end", "761": "babilit", "762": "ero</w>", "763": "in.</w>", "764": "wei", "765": "backpropag", "766": "gradient</w>", "767": "descent", "768": "1.</w>", "769": "number</w>", "770": "5</w>", "771": "2</w>", "772": "prot", "773": "ons,</w>", "774": "natural</w>", "775": "expl", "776": "iod", "777": "xim", "778": "30", "779": "meter", "780": "meters</w>", "781": "se", "782": "erg", "783": "ival", "784": "E</w>", "785": "partic", "786": "atom", "787": "atomic</w>", "788": "lim", "789": "ho", "790": "iss", "791": "izes</w>", "792": "ox", "793": "se</w>", "794": "processes</w>", "795": "gorithms</w>", "796": "-b", "797": "ici", "798": "computers</w>", "799": "being</w>", "800": "progra", "801": "many</w>", "802": "transformer</w>", "803": "attention</w>", "804": "izing</w>", "805": "cted</w>", "806": "ypt", "807": "different</w>", "808": "ilos", "809": "iloso", "810": "ilosoph", "811": "asks</w>", "812": "mental</w>", "813": "valu", "814": "moder", "815": "modern</w>", "816": "moral</w>", "817": "gover", "818": "phys", "819": "physical</w>", "820": "ot", "821": "emph", "822": "emphas", "823": "ized</w>", "824": "knowledge.</w>", "825": "hol", "826": "holds</w>", "827": "alism</w>", "828": "indiv", "829": "individ", "830": "individu", "831": "ure", "832": "cultural</w>", "833": "uring</w>", "834": "century</w>", "835": "War</w>", "836": "194", "837": "anci", "838": "ancient</w>", "839": "ated</w>", "840": "ere</w>", "841": "ment</w>", "842": "Col", "843": "Un", "844": "machine</w>", "845": "model</w>", "846": "model:</w>", "847": "y:</w>", "848": "every</w>", "849": "ast</w>", "850": "ce.</w>", "851": "thou", "852": "Words</w>", "853": "carry</w>", "854": "text.</w>", "855": "Gra", "856": "sentenc", "857": "sub", "858": "oc", "859": "word</w>", "860": "meaning.</w>", "861": "arg", "862": "val", "863": "id</w>", "864": "lows</w>", "865": "logic", "866": "logicall", "867": "whether</w>", "868": "then</w>", "869": "under", "870": "test", "871": "pred", "872": "predic", "873": "predict", "874": "desig", "875": "do", "876": "does</w>", "877": "ot</w>", "878": "caus", "879": "accum", "880": "accumul", "881": "under</w>", "882": "cur", "883": "ative</w>", "884": "respe", "885": "respect</w>", "886": "uncerta", "887": "uncertaint", "888": "learns</w>", "889": "adju", "890": "adjust", "891": "weight", "892": "descent.</w>", "893": "ithm</w>", "894": "hypothesis,</w>", "895": "electr", "896": "inform", "897": "isms</w>", "898": "adv", "899": "sur", "900": "repro", "901": "reprodu", "902": "reproduce</w>", "903": "atel", "904": "ste", "905": "ity</w>", "906": "antum</w>", "907": "mech", "908": "mechan", "909": "behavior</w>", "910": "exh", "911": "exhib", "912": "exhibit</w>", "913": "e-", "914": "p</w>", "915": "organ", "916": "memor", "917": "ed", "918": "Machine</w>", "919": "lay", "920": "layers</w>", "921": "arch", "922": "archit", "923": "architect", "924": "self", "925": "l</w>", "926": "syst", "927": "system", "928": "systems</w>", "929": "ke</w>", "930": "ck</w>", "931": "cod", "932": "abor", "933": "inter", "934": "intercon", "935": "interconne", "936": "interconnected</w>", "937": "and", "938": "ard</w>", "939": "form</w>", "940": "cor", "941": "values,</w>", "942": "am", "943": "ce", "944": "wel", "945": "ffect", "946": "own</w>", "947": "min", "948": "ow</w>", "949": "relate</w>", "950": "ogy</w>", "951": "ure,</w>", "952": "ization</w>", "953": "oun", "954": "rop", "955": "fact", "956": "inv", "957": "ark", "958": "where</w>", "959": "eo", "960": "ing?</w>", "961": "test</w>", "962": "can</w>", "963": "para", "964": "loss</w>", "965": "when</w>", "966": "train", "967": "bu", "968": "sm", "969": "small</w>", "970": "time", "971": "quic", "972": "quick</w>", "973": "bro", "974": "brow", "975": "brown</w>", "976": "fox</w>", "977": "jump", "978": "jumps</w>", "979": "ov", "980": "over</w>", "981": "laz", "982": "lazy</w>", "983": "dog", "984": "dog.</w>", "985": "sentence</w>", "986": "let", "987": "lett", "988": "letter</w>", "989": "Engl", "990": "Englis", "991": "English</w>", "992": "alph", "993": "alphab", "994": "alphabet</w>", "995": "least</w>", "996": "once.</w>", "997": "Language</w>", "998": "whic", "999": "which</w>", "1000": "humans</w>", "1001": "thoughts,</w>", "1002": "feel", "1003": "feeling", "1004": "feelings,</w>", "1005": "ideas", "1006": "ideas.</w>", "1007": "shaped</w>", "1008": "culture</w>", "1009": "context.</w>", "1010": "Gramm", "1011": "Grammar</w>", "1012": "prov", "1013": "provid", "1014": "provides</w>", "1015": "rul", "1016": "rules</w>", "1017": "construct", "1018": "constructing</w>", "1019": "sentences.</w>", "1020": "subj", "1021": "subje", "1022": "subject</w>", "1023": "performs</w>", "1024": "described</w>", "1025": "verb</w>", "1026": "obj", "1027": "object", "1028": "object.</w>", "1029": "Voc", "1030": "Vocab", "1031": "Vocabul", "1032": "Vocabulary</w>", "1033": "gro", "1034": "grows</w>", "1035": "reading</w>", "1036": "convers", "1037": "conversation.</w>", "1038": "Each", "1039": "Each</w>", "1040": "tool", "1041": "tool</w>", "1042": "expr", "1043": "express", "1044": "expressing</w>", "1045": "precise</w>", "1046": "Crit", "1047": "Critical</w>", "1048": "thinking</w>", "1049": "question", "1050": "questioning</w>", "1051": "assu", "1052": "assump", "1053": "assumpt", "1054": "assumptions,</w>", "1055": "evaluating</w>", "1056": "evid", "1057": "evidence,</w>", "1058": "forming</w>", "1059": "logical</w>", "1060": "An</w>", "1061": "argum", "1062": "argument</w>", "1063": "valid</w>", "1064": "if</w>", "1065": "conclusion</w>", "1066": "fol", "1067": "follows</w>", "1068": "logically</w>", "1069": "premises,</w>", "1070": "reg", "1071": "regar", "1072": "regard", "1073": "regardl", "1074": "regardless</w>", "1075": "premises</w>", "1076": "tru", "1077": "true.</w>", "1078": "Dedu", "1079": "Deductive</w>", "1080": "If</w>", "1081": "men</w>", "1082": "mortal</w>", "1083": "man,</w>", "1084": "mortal", "1085": "mortal.</w>", "1086": "Inductive</w>", "1087": "observations</w>", "1088": "underli", "1089": "underlies</w>", "1090": "method.</w>", "1091": "hypothesis</w>", "1092": "testable</w>", "1093": "prediction</w>", "1094": "derived</w>", "1095": "theory.</w>", "1096": "Experiment", "1097": "Experiments</w>", "1098": "design", "1099": "designed</w>", "1100": "confir", "1101": "confirm</w>", "1102": "fal", "1103": "falsi", "1104": "falsify</w>", "1105": "hypotheses.</w>", "1106": "Cor", "1107": "Correl", "1108": "Correlation</w>", "1109": "not</w>", "1110": "imply</w>", "1111": "causation.</w>", "1112": "vari", "1113": "variables</w>", "1114": "may</w>", "1115": "move</w>", "1116": "tog", "1117": "together</w>", "1118": "causing</w>", "1119": "other", "1120": "other.</w>", "1121": "Ma", "1122": "Mathem", "1123": "Mathemat", "1124": "Mathematics</w>", "1125": "patterns,</w>", "1126": "structur", "1127": "structures,</w>", "1128": "relation", "1129": "relationsh", "1130": "relationshi", "1131": "relationship", "1132": "relationships</w>", "1133": "precision.</w>", "1134": "Pythag", "1135": "Pythagor", "1136": "Pythagore", "1137": "Pythagorean</w>", "1138": "theore", "1139": "theorem</w>", "1140": "states</w>", "1141": "right</w>", "1142": "tri", "1143": "triang", "1144": "triangle", "1145": "triangle,</w>", "1146": "Pr", "1147": "Prime</w>", "1148": "divis", "1149": "divisib", "1150": "divisible</w>", "1151": "themsel", "1152": "themselves.</w>", "1153": "prim", "1154": "primes</w>", "1155": "2,</w>", "1156": "5,</w>", "1157": "11", "1158": "11,</w>", "1159": "13,</w>", "1160": "17,</w>", "1161": "19.</w>", "1162": "Cal", "1163": "Calcul", "1164": "Calculus</w>", "1165": "accumulation.</w>", "1166": "Di", "1167": "Differ", "1168": "Differenti", "1169": "Differentiation</w>", "1170": "rates</w>", "1171": "change", "1172": "change;</w>", "1173": "integr", "1174": "integration</w>", "1175": "are", "1176": "areas</w>", "1177": "curves.</w>", "1178": "derivative</w>", "1179": "2x", "1180": "2x.</w>", "1181": "integral</w>", "1182": "2x</w>", "1183": "const", "1184": "constant", "1185": "constant.</w>", "1186": "Stat", "1187": "Statist", "1188": "Statistics</w>", "1189": "uncertainty.</w>", "1190": "Me", "1191": "Mean,</w>", "1192": "median,</w>", "1193": "mode</w>", "1194": "tend", "1195": "tendenc", "1196": "tendency.</w>", "1197": "Pro", "1198": "Probabilit", "1199": "Probability</w>", "1200": "rang", "1201": "ranges</w>", "1202": "zero</w>", "1203": "one.</w>", "1204": "Zero</w>", "1205": "impo", "1206": "impos", "1207": "impossi", "1208": "impossible", "1209": "impossible;</w>", "1210": "certain.</w>", "1211": "adjusting</w>", "1212": "weights</w>", "1213": "backpropagation</w>", "1214": "Bin", "1215": "Binary</w>", "1216": "dec", "1217": "decim", "1218": "decimal</w>", "1219": "10", "1220": "101", "1221": "101</w>", "1222": "bin", "1223": "binar", "1224": "binary.</w>", "1225": "Log", "1226": "Logar", "1227": "Logarithms</w>", "1228": "invers", "1229": "inverse</w>", "1230": "expon", "1231": "exponenti", "1232": "exponentiation.</w>", "1233": "logar", "1234": "logarithm</w>", "1235": "base</w>", "1236": "8</w>", "1237": "beca", "1238": "because</w>", "1239": "pow", "1240": "power</w>", "1241": "3</w>", "1242": "8.</w>", "1243": "method</w>", "1244": "observation,</w>", "1245": "experiment", "1246": "experiment,</w>", "1247": "anal", "1248": "analys", "1249": "analysis,</w>", "1250": "conclusion.</w>", "1251": "Ato", "1252": "Atoms</w>", "1253": "basic</w>", "1254": "units</w>", "1255": "matter", "1256": "matter.</w>", "1257": "The", "1258": "They</w>", "1259": "cons", "1260": "consis", "1261": "consist</w>", "1262": "protons,</w>", "1263": "neut", "1264": "neutr", "1265": "neutrons,</w>", "1266": "electron", "1267": "electrons.</w>", "1268": "DN", "1269": "DNA</w>", "1270": "carri", "1271": "carries</w>", "1272": "gene", "1273": "genet", "1274": "genetic</w>", "1275": "information</w>", "1276": "four", "1277": "four</w>", "1278": "bases", "1279": "bases:</w>", "1280": "aden", "1281": "adenine,</w>", "1282": "thy", "1283": "thym", "1284": "thymine,</w>", "1285": "guan", "1286": "guanine,</w>", "1287": "cy", "1288": "cyto", "1289": "cytos", "1290": "cytosin", "1291": "cytosine.</w>", "1292": "Evol", "1293": "Evolution</w>", "1294": "select", "1295": "selection</w>", "1296": "expla", "1297": "explain", "1298": "explains</w>", "1299": "biod", "1300": "biodivers", "1301": "biodiversity.</w>", "1302": "Or", "1303": "Organ", "1304": "Organisms</w>", "1305": "advant", "1306": "advantag", "1307": "advantage", "1308": "advantageou", "1309": "advantageous</w>", "1310": "traits</w>", "1311": "surv", "1312": "survive</w>", "1313": "more.</w>", "1314": "speed</w>", "1315": "light</w>", "1316": "vac", "1317": "vacu", "1318": "vacuum</w>", "1319": "appro", "1320": "approxim", "1321": "approximatel", "1322": "approximately</w>", "1323": "300</w>", "1324": "mill", "1325": "million</w>", "1326": "per</w>", "1327": "secon", "1328": "second.</w>", "1329": "Ein", "1330": "Einste", "1331": "Einstein", "1332": "Einstein'", "1333": "Einstein's</w>", "1334": "theory</w>", "1335": "relat", "1336": "relativ", "1337": "relativity</w>", "1338": "show", "1339": "shows</w>", "1340": "mas", "1341": "mass</w>", "1342": "energ", "1343": "energy</w>", "1344": "equival", "1345": "equivalent", "1346": "equivalent:</w>", "1347": "mc</w>", "1348": "Qu", "1349": "Quantum</w>", "1350": "mechanics</w>", "1351": "particles</w>", "1352": "sc", "1353": "scal", "1354": "scale.</w>", "1355": "Part", "1356": "Partic", "1357": "Particles</w>", "1358": "wav", "1359": "wave-", "1360": "wave-partic", "1361": "wave-particle</w>", "1362": "dual", "1363": "duality.</w>", "1364": "Clim", "1365": "Climate</w>", "1366": "dr", "1367": "driv", "1368": "driven</w>", "1369": "gre", "1370": "green", "1371": "greenho", "1372": "greenhouse</w>", "1373": "gas</w>", "1374": "emiss", "1375": "emissions</w>", "1376": "trap</w>", "1377": "he", "1378": "heat</w>", "1379": "atmo", "1380": "atmos", "1381": "atmosph", "1382": "atmospher", "1383": "atmosphere.</w>", "1384": "period", "1385": "periodic</w>", "1386": "table</w>", "1387": "organizes</w>", "1388": "element", "1389": "elements</w>", "1390": "chem", "1391": "chemical</w>", "1392": "proper", "1393": "properti", "1394": "properties.</w>", "1395": "Pho", "1396": "Photo", "1397": "Photosy", "1398": "Photosyn", "1399": "Photosynthes", "1400": "Photosynthesis</w>", "1401": "conver", "1402": "convert", "1403": "converts</w>", "1404": "sun", "1405": "sunlight", "1406": "sunlight,</w>", "1407": "carb", "1408": "carbon</w>", "1409": "diox", "1410": "dioxid", "1411": "dioxide,</w>", "1412": "wat", "1413": "water</w>", "1414": "glu", "1415": "gluco", "1416": "glucose</w>", "1417": "oxy", "1418": "oxygen", "1419": "oxygen.</w>", "1420": "computer</w>", "1421": "processing</w>", "1422": "unit", "1423": "unit,</w>", "1424": "memory,</w>", "1425": "stor", "1426": "storag", "1427": "storage.</w>", "1428": "Al", "1429": "Algorithms</w>", "1430": "step", "1431": "step-b", "1432": "step-by", "1433": "step-by-", "1434": "step-by-st", "1435": "step-by-step</w>", "1436": "proced", "1437": "procedures</w>", "1438": "solv", "1439": "solving</w>", "1440": "problem", "1441": "problems.</w>", "1442": "Eff", "1443": "Effici", "1444": "Efficient</w>", "1445": "algorithms</w>", "1446": "sav", "1447": "save</w>", "1448": "time</w>", "1449": "reso", "1450": "resour", "1451": "resourc", "1452": "resources.</w>", "1453": "enables</w>", "1454": "explic", "1455": "explicit", "1456": "explicitly</w>", "1457": "program", "1458": "programme", "1459": "programmed.</w>", "1460": "Deep</w>", "1461": "networks</w>", "1462": "reco", "1463": "recog", "1464": "recogn", "1465": "recognize</w>", "1466": "patterns</w>", "1467": "comple", "1468": "complex</w>", "1469": "architecture</w>", "1470": "self-", "1471": "self-attention</w>", "1472": "process</w>", "1473": "paralle", "1474": "parallel", "1475": "parallel,</w>", "1476": "revol", "1477": "revolut", "1478": "revolution", "1479": "revolutionizing</w>", "1480": "processing.</w>", "1481": "Python</w>", "1482": "pop", "1483": "popul", "1484": "popular</w>", "1485": "programm", "1486": "programming</w>", "1487": "known</w>", "1488": "readabilit", "1489": "readability</w>", "1490": "versat", "1491": "versatilit", "1492": "versatility.</w>", "1493": "Vers", "1494": "Version</w>", "1495": "cont", "1496": "contro", "1497": "control</w>", "1498": "like</w>", "1499": "Git</w>", "1500": "track</w>", "1501": "changes</w>", "1502": "code</w>", "1503": "enable</w>", "1504": "coll", "1505": "collabor", "1506": "collaboration.</w>", "1507": "Inter", "1508": "Interne", "1509": "Internet</w>", "1510": "glo", "1511": "glob", "1512": "global</w>", "1513": "communicating</w>", "1514": "stand", "1515": "standard</w>", "1516": "proto", "1517": "protocol", "1518": "protocols.</w>", "1519": "Encr", "1520": "Encrypt", "1521": "Encryption</w>", "1522": "protect", "1523": "protects</w>", "1524": "transforming</w>", "1525": "unread", "1526": "unreadable</w>", "1527": "corre", "1528": "correct</w>", "1529": "ke", "1530": "key.</w>", "1531": "AP", "1532": "API", "1533": "APIs</w>", "1534": "allo", "1535": "allow</w>", "1536": "so", "1537": "sof", "1538": "soft", "1539": "softw", "1540": "software</w>", "1541": "appl", "1542": "applic", "1543": "applications</w>", "1544": "share</w>", "1545": "Ph", "1546": "Philosoph", "1547": "Philosophy</w>", "1548": "fund", "1549": "funda", "1550": "fundamental</w>", "1551": "questions</w>", "1552": "about</w>", "1553": "exist", "1554": "existence,</w>", "1555": "knowledge,</w>", "1556": "reason.</w>", "1557": "Des", "1558": "Desc", "1559": "Descart", "1560": "Descartes</w>", "1561": "wro", "1562": "wrot", "1563": "wrote", "1564": "wrote:</w>", "1565": "think,</w>", "1566": "there", "1567": "therefor", "1568": "therefore</w>", "1569": "am.</w>", "1570": "This</w>", "1571": "found", "1572": "foundation", "1573": "foundational</w>", "1574": "stat", "1575": "statem", "1576": "statement</w>", "1577": "philosoph", "1578": "philosophy.</w>", "1579": "Eth", "1580": "Ethics</w>", "1581": "govern</w>", "1582": "behavior", "1583": "behavior.</w>", "1584": "right", "1585": "right?</w>", "1586": "go", "1587": "good", "1588": "good?</w>", "1589": "Pl", "1590": "Plat", "1591": "Plato</w>", "1592": "bel", "1593": "beli", "1594": "believ", "1595": "believed</w>", "1596": "ideal</w>", "1597": "bey", "1598": "beyon", "1599": "beyond</w>", "1600": "we</w>", "1601": "perce", "1602": "perceiv", "1603": "perceive.</w>", "1604": "Ari", "1605": "Arist", "1606": "Aristot", "1607": "Aristotle</w>", "1608": "emphasized</w>", "1609": "observation</w>", "1610": "empir", "1611": "empirical</w>", "1612": "stud", "1613": "study</w>", "1614": "basis</w>", "1615": "Ut", "1616": "Utilit", "1617": "Utilitari", "1618": "Utilitarian", "1619": "Utilitarianism</w>", "1620": "best</w>", "1621": "maxim", "1622": "maximizes</w>", "1623": "overall</w>", "1624": "well", "1625": "well-", "1626": "well-being</w>", "1627": "affect", "1628": "affected.</w>", "1629": "Kant</w>", "1630": "argu", "1631": "argued</w>", "1632": "actions</w>", "1633": "mus", "1634": "must</w>", "1635": "be</w>", "1636": "guid", "1637": "guided</w>", "1638": "universal", "1639": "universaliz", "1640": "universalizable</w>", "1641": "principles.</w>", "1642": "Exist", "1643": "Existenti", "1644": "Existentialism</w>", "1645": "individuals</w>", "1646": "cre", "1647": "create</w>", "1648": "their", "1649": "their</w>", "1650": "indifferent</w>", "1651": "mind", "1652": "mind-b", "1653": "mind-bod", "1654": "mind-body</w>", "1655": "how</w>", "1656": "exper", "1657": "experi", "1658": "experiences</w>", "1659": "bra", "1660": "brain.</w>", "1661": "Ep", "1662": "Epist", "1663": "Epistem", "1664": "Epistemol", "1665": "Epistemology</w>", "1666": "nature,</w>", "1667": "sco", "1668": "scop", "1669": "scope,</w>", "1670": "limits</w>", "1671": "human</w>", "1672": "Hum", "1673": "Human</w>", "1674": "civ", "1675": "civil", "1676": "civilization</w>", "1677": "emerg", "1678": "emerged</w>", "1679": "aroun", "1680": "around</w>", "1681": "300", "1682": "3000</w>", "1683": "BC", "1684": "BCE</w>", "1685": "Mes", "1686": "Meso", "1687": "Mesopo", "1688": "Mesopota", "1689": "Mesopotam", "1690": "Mesopotami", "1691": "Mesopotamia", "1692": "Mesopotamia,</w>", "1693": "Eg", "1694": "Egypt", "1695": "Egypt,</w>", "1696": "Indus</w>", "1697": "Valle", "1698": "Valley,</w>", "1699": "Ch", "1700": "Chin", "1701": "China", "1702": "China.</w>", "1703": "Ren", "1704": "Rena", "1705": "Renaiss", "1706": "Renaissan", "1707": "Renaissance</w>", "1708": "reb", "1709": "rebir", "1710": "rebirth</w>", "1711": "Eu", "1712": "Europ", "1713": "Europe</w>", "1714": "14", "1715": "14th</w>", "1716": "17", "1717": "17th</w>", "1718": "centuri", "1719": "centuries,</w>", "1720": "emphasizing</w>", "1721": "humanism</w>", "1722": "art.</w>", "1723": "Indust", "1724": "Industri", "1725": "Industrial</w>", "1726": "Rev", "1727": "Revol", "1728": "Revolution</w>", "1729": "transformed</w>", "1730": "econ", "1731": "econom", "1732": "economies</w>", "1733": "agr", "1734": "agrari", "1735": "agrarian</w>", "1736": "manu", "1737": "manufact", "1738": "manufacturing</w>", "1739": "18", "1740": "18th</w>", "1741": "onw", "1742": "onwar", "1743": "onward.</w>", "1744": "World</w>", "1745": "ended</w>", "1746": "1945</w>", "1747": "defe", "1748": "defeat</w>", "1749": "Na", "1750": "Naz", "1751": "Nazi", "1752": "Nazi</w>", "1753": "Ger", "1754": "Germany</w>", "1755": "Imp", "1756": "Imper", "1757": "Imperi", "1758": "Imperial</w>", "1759": "Jap", "1760": "Japan", "1761": "Japan.</w>", "1762": "invention</w>", "1763": "print", "1764": "printing</w>", "1765": "press</w>", "1766": "15", "1767": "15th</w>", "1768": "demo", "1769": "democr", "1770": "democrat", "1771": "democratized</w>", "1772": "knowledge</w>", "1773": "fu", "1774": "fuele", "1775": "fueled</w>", "1776": "Re", "1777": "Reform", "1778": "Reformation.</w>", "1779": "fall</w>", "1780": "Rom", "1781": "Roman</w>", "1782": "Emp", "1783": "Empir", "1784": "Empire</w>", "1785": "mark", "1786": "marked</w>", "1787": "transit", "1788": "transition</w>", "1789": "mediev", "1790": "medieval</w>", "1791": "hist", "1792": "histor", "1793": "history.</w>", "1794": "Demo", "1795": "Democ", "1796": "Democra", "1797": "Democrac", "1798": "Democracy</w>", "1799": "orig", "1800": "origin", "1801": "originated</w>", "1802": "Ath", "1803": "Athen", "1804": "Athens,</w>", "1805": "cit", "1806": "citiz", "1807": "citizen", "1808": "citizens</w>", "1809": "vot", "1810": "voted</w>", "1811": "laws</w>", "1812": "polici", "1813": "policies.</w>", "1814": "Enlight", "1815": "Enlighten", "1816": "Enlightenment</w>", "1817": "promo", "1818": "promot", "1819": "promoted</w>", "1820": "reason,</w>", "1821": "science,</w>", "1822": "individual</w>", "1823": "rights,</w>", "1824": "inf", "1825": "infl", "1826": "influ", "1827": "influenc", "1828": "influencing</w>", "1829": "govern", "1830": "government", "1831": "governments.</w>", "1832": "Colon", "1833": "Coloni", "1834": "Colonialism</w>", "1835": "resh", "1836": "reshaped</w>", "1837": "conquest", "1838": "conquest,</w>", "1839": "explo", "1840": "exploit", "1841": "exploitation,</w>", "1842": "exchang", "1843": "exchange.</w>", "1844": "Cold</w>", "1845": "geo", "1846": "geopol", "1847": "geopolit", "1848": "geopolitical</w>", "1849": "rival", "1850": "rivalry</w>", "1851": "bet", "1852": "betwe", "1853": "between</w>", "1854": "Unit", "1855": "United</w>", "1856": "States</w>", "1857": "Sov", "1858": "Sovi", "1859": "Soviet</w>", "1860": "Union</w>", "1861": "1947", "1862": "1947</w>", "1863": "199", "1864": "1991.</w>", "1865": "cap", "1866": "capit", "1867": "capital</w>", "1868": "Fran", "1869": "learning?</w>", "1870": "impro", "1871": "improve</w>", "1872": "k?</w>", "1873": "parts</w>", "1874": "sequence</w>", "1875": "Turing</w>", "1876": "opt", "1877": "parameters</w>", "1878": "probabilit", "1879": "probabilities</w>", "1880": "generate</w>", "1881": "coh", "1882": "coher", "1883": "fit", "1884": "fitt", "1885": "training</w>", "1886": "alize</w>", "1887": "gradient", "1888": "rele", "1889": "relev", "1890": "relevant</w>", "1891": "train</w>", "1892": "lect</w>", "1893": "text,</w>", "1894": "clear", "1895": "clearl", "1896": "solut", "1897": "evaluate</w>", "1898": "imple", "1899": "implement</w>", "1900": "writ", "1901": "rev", "1902": "ing,</w>", "1903": "g</w>", "1904": "sk", "1905": "skill", "1906": "oo", "1907": "buil", "1908": "data,</w>", "1909": "compute</w>", "1910": "up", "1911": "che", "1912": "star", "1913": "itor</w>", "1914": "beg", "1915": "time.</w>", "1916": "tain", "1917": "br", "1918": "you", "1919": "you</w>", "1920": "France", "1921": "France?</w>", "1922": "France</w>", "1923": "Par", "1924": "Paris", "1925": "Paris.</w>", "1926": "bran", "1927": "branch", "1928": "branch</w>", "1929": "AI</w>", "1930": "perform", "1931": "performan", "1932": "performance.</w>", "1933": "How</w>", "1934": "work?</w>", "1935": "mechanisms</w>", "1936": "sim", "1937": "simul", "1938": "simult", "1939": "simultan", "1940": "simultaneo", "1941": "simultaneous", "1942": "simultaneousl", "1943": "simultaneously.</w>", "1944": "test?</w>", "1945": "intel", "1946": "intelli", "1947": "intellig", "1948": "intelligent</w>", "1949": "indi", "1950": "indist", "1951": "indisting", "1952": "indistingu", "1953": "indistinguis", "1954": "indistinguish", "1955": "indistinguishable</w>", "1956": "human.</w>", "1957": "descent?</w>", "1958": "Gradi", "1959": "Gradient</w>", "1960": "descent</w>", "1961": "optim", "1962": "optimization</w>", "1963": "algor", "1964": "algorithm</w>", "1965": "adjusts</w>", "1966": "dire", "1967": "direct", "1968": "direction</w>", "1969": "steep", "1970": "steepest</w>", "1971": "redu", "1972": "reduct", "1973": "reduction.</w>", "1974": "model?</w>", "1975": "ass", "1976": "assig", "1977": "assign", "1978": "assigns</w>", "1979": "words</w>", "1980": "coherent</w>", "1981": "overfitt", "1982": "overfitting?</w>", "1983": "Over", "1984": "Overfitt", "1985": "Overfitting</w>", "1986": "occur", "1987": "occurs</w>", "1988": "too</w>", "1989": "well</w>", "1990": "fa", "1991": "fail", "1992": "fails</w>", "1993": "generalize</w>", "1994": "backpropagation", "1995": "backpropagation?</w>", "1996": "Back", "1997": "Backpropag", "1998": "Backpropagation</w>", "1999": "computes</w>", "2000": "gradients</w>", "2001": "cha", "2002": "chain</w>", "2003": "rule", "2004": "rule.</w>", "2005": "deep</w>", "2006": "At", "2007": "Attention</w>", "2008": "allows</w>", "2009": "models</w>", "2010": "foc", "2011": "focus</w>", "2012": "inp", "2013": "inpu", "2014": "input</w>", "2015": "mak", "2016": "making</w>", "2017": "prediction", "2018": "predictions.</w>", "2019": "network?</w>", "2020": "neur", "2021": "neuron", "2022": "neurons</w>", "2023": "repr", "2024": "repres", "2025": "represent", "2026": "representations</w>", "2027": "collect</w>", "2028": "corp", "2029": "corpus", "2030": "corpus,</w>", "2031": "tok", "2032": "token", "2033": "tokenize</w>", "2034": "init", "2035": "initi", "2036": "initialize</w>", "2037": "model,</w>", "2038": "minim", "2039": "minimize</w>", "2040": "cro", "2041": "cros", "2042": "cross", "2043": "cross-", "2044": "cross-ent", "2045": "cross-entrop", "2046": "cross-entropy</w>", "2047": "solve</w>"}, "merges": [["s", "</w>"], ["e", "</w>"], ["i", "n"], ["a", "n"], ["t", "h"], ["o", "n"], [".", "</w>"], ["a", "t"], ["d", "</w>"], ["e", "r"], ["e", "n"], ["a", "l"], [",", "</w>"], ["a", "r"], ["o", "r"], ["i", "on"], ["e", "s"], ["r", "o"], ["t", "</w>"], ["e", "s</w>"], ["th", "e</w>"], ["y", "</w>"], ["an", "d</w>"], ["in", "g"], ["i", "c"], ["a", "</w>"], ["r", "e"], ["f", "</w>"], ["ing", "</w>"], ["al", "</w>"], ["l", "e"], ["o", "</w>"], ["o", "f</w>"], ["i", "t"], ["e", "d</w>"], ["i", "s</w>"], ["en", "t"], ["m", "</w>"], ["s", "t"], ["ion", "</w>"], ["u", "r"], ["p", "ro"], ["T", "h"], ["Th", "e</w>"], ["o", "l"], ["t", "o</w>"], ["u", "n"], ["i", "v"], ["at", "</w>"], ["a", "s"], ["m", "e"], ["c", "t"], ["in", "</w>"], ["u", "s"], ["i", "s"], ["f", "or"], ["q", "u"], ["c", "on"], [":", "</w>"], ["c", "h"], ["er", "</w>"], ["c", "o"], ["e", "l"], ["m", "o"], ["m", "p"], ["e", ".</w>"], ["a", "b"], ["g", "h"], ["r", "a"], ["an", "g"], ["e", "x"], ["at", "ion"], ["f", "ro"], ["fro", "m</w>"], ["en", "c"], ["a", "g"], ["l", "o"], ["d", "i"], ["n", "e"], ["en", "t</w>"], ["ar", "e</w>"], ["i", "m"], ["i", "z"], ["an", "</w>"], ["v", "er"], ["s", ",</w>"], ["i", "th"], ["n", "</w>"], ["u", "m"], ["c", "i"], ["y", ".</w>"], ["i", "d"], ["i", "l"], ["u", "t"], ["b", "y</w>"], ["o", "w"], ["for", "m"], ["r", "i"], ["w", "or"], ["e", ",</w>"], ["s", ".</w>"], ["ic", "</w>"], ["th", "at</w>"], ["at", "e</w>"], ["u", "l"], ["A", "</w>"], ["l", "e</w>"], ["at", "ion</w>"], ["le", "ar"], ["p", "l"], ["e", "m"], ["t", "er"], ["mo", "d"], ["b", "e"], ["d", "at"], ["o", "u"], ["es", ".</w>"], ["p", "er"], ["al", "l"], ["d", ".</w>"], ["gh", "t"], ["d", "es"], ["t", "o"], ["p", "r"], ["it", "s</w>"], ["w", "ith"], ["e", "qu"], ["a", "c"], ["c", "ent"], ["p", "h"], ["ag", "e</w>"], ["a", "d"], ["ic", "al</w>"], ["d", "u"], ["m", "or"], ["l", "i"], ["i", "r"], ["ur", "al</w>"], ["?", "</w>"], ["ang", "u"], ["angu", "age</w>"], ["me", "an"], ["for", "</w>"], ["on", "</w>"], ["ation", ".</w>"], ["p", "re"], ["es", "t"], ["e", "v"], ["g", "en"], ["en", "</w>"], ["p", "o"], ["a", "s</w>"], ["pro", "c"], ["r", "an"], ["W", "h"], ["Wh", "at</w>"], ["k", "</w>"], ["x", "</w>"], ["d", "s</w>"], ["a", "p"], ["es", "s"], ["p", "e"], ["all", "</w>"], ["s", "qu"], ["squ", "ar"], ["f", "f"], ["m", "s</w>"], ["ar", "t"], ["co", "mp"], ["w", "h"], ["a", "ch"], ["c", "l"], ["es", ",</w>"], ["un", "d"], ["ent", "i"], ["ab", "le</w>"], ["l", "anguage</w>"], ["er", "s"], ["er", "s</w>"], ["in", "t"], ["lear", "n"], ["d", "e"], ["t", "ra"], ["n", "ow"], ["mod", "el"], ["m", "m"], ["s", "h"], ["a", "ct"], ["e", "ct"], ["con", "cl"], ["concl", "us"], ["iv", "e</w>"], ["at", "es</w>"], ["ch", "ang"], ["i", "st"], ["il", "it"], ["g", "ra"], ["a", "v"], ["e", "p"], ["t", "ran"], ["tran", "s"], ["k", "now"], ["th", "</w>"], ["Q", ":</w>"], ["A", ":</w>"], ["T", "o</w>"], ["c", "t</w>"], ["gh", "</w>"], ["v", "ol"], ["gen", "er"], ["f", "ic</w>"], ["th", "es"], ["re", "l"], ["ou", "t</w>"], ["iv", "ers"], ["with", "</w>"], ["al", "s</w>"], ["t", "a"], ["b", "le"], ["us", "e</w>"], ["e", "le"], ["o", "d"], ["comp", "ut"], ["proc", "ess"], ["dat", "a</w>"], ["lo", "s"], ["le", "d"], ["led", "g"], ["f", "o"], ["c", "ar"], ["c", "ul"], ["ar", "</w>"], ["r", "u"], ["o", "b"], ["th", "ro"], ["thro", "u"], ["throu", "gh</w>"], ["v", "es</w>"], ["qu", "est"], ["al", "u"], ["conclus", "ion"], ["re", "as"], ["reas", "on"], ["c", "r"], ["m", "an"], ["I", "n"], ["th", "e"], ["or", "</w>"], ["l", "y</w>"], ["l", "es</w>"], ["ic", "s</w>"], ["squar", "ed</w>"], ["n", "um"], ["num", "b"], ["1", "9"], ["st", "u"], ["r", "es"], ["ne", "t"], ["net", "wor"], ["b", "as"], ["o", "m"], ["i", "t</w>"], ["m", "ent"], ["y", ",</w>"], ["in", "e</w>"], ["dat", "a"], ["trans", "form"], ["know", "ledg"], ["l", "d</w>"], ["is", "m</w>"], ["l", "a"], ["o", "g"], ["enc", "e</w>"], ["us", "es</w>"], ["h", "um"], ["des", "c"], ["w", "s</w>"], ["w", "</w>"], ["lo", "g"], ["th", "er</w>"], ["s", "pe"], ["s", "ci"], ["h", "y"], ["hy", "po"], ["hypo", "thes"], ["i", "g"], ["c", "a"], ["on", "e</w>"], ["un", "ivers"], ["at", "ter"], ["u", "s</w>"], ["ff", "er"], ["an", "t"], ["ur", "es</w>"], ["s", "equ"], ["enc", "es</w>"], ["c", "e</w>"], ["s", "ol"], ["pro", "ble"], ["ach", "ine</w>"], ["iz", "e</w>"], ["ent", "ion</w>"], ["o", "ver"], ["es", "t</w>"], ["cent", "ur"], ["E", "n"], ["mean", "s</w>"], ["co", "mm"], ["comm", "un"], ["commun", "ic"], ["cul", "t"], ["desc", "ri"], ["descri", "b"], ["re", "ad"], ["ver", "s"], ["ing", ".</w>"], ["enc", "e,</w>"], ["conclusion", "s.</w>"], ["es", "s</w>"], ["D", "e"], ["pr", "in"], ["prin", "ci"], ["princi", "pl"], ["S", "o"], ["In", "du"], ["ob", "s"], ["obs", "er"], ["obser", "v"], ["the", "or"], ["f", "ir"], ["i", "mp"], ["ar", "i"], ["m", "a"], ["v", "e</w>"], ["with", "out</w>"], ["us", "ing</w>"], ["equ", "als</w>"], ["e", "d.</w>"], ["d", "iv"], ["i", "b"], ["3", ",</w>"], ["stu", "di"], ["studi", "es</w>"], ["f", "in"], ["r", "al</w>"], ["ab", "ilit"], ["ne", "ural</w>"], ["w", "e"], ["ac", "k"], ["gra", "di"], ["0", "</w>"], ["ith", "ms</w>"], ["y", "s"], ["in", "e,</w>"], ["g", "u"], ["n", "at"], ["il", "l"], ["p", "art"], ["ion", "s</w>"], ["ep", "</w>"], ["learn", "ing</w>"], ["k", "s</w>"], ["data", ".</w>"], ["c", "ol"], ["p", "t"], ["wor", "ld</w>"], ["e", "mp"], ["j", "u"], ["s", "ent"], ["e", "t</w>"], ["hum", "an"], ["f", "e"], ["id", "e"], ["W", "or"], ["r", "y</w>"], ["ur", "e</w>"], ["t", "ex"], ["tex", "t"], ["st", "ru"], ["stru", "ct"], ["s", "u"], ["ar", "y</w>"], ["c", "is"], ["th", "in"], ["thin", "k"], ["ion", "s,</w>"], ["e", "ther</w>"], ["spe", "ci"], ["speci", "fic</w>"], ["ation", "s</w>"], ["I", "t</w>"], ["th", "er"], ["p", "atter"], ["patter", "n"], ["y", "th"], ["s", "el"], ["me", "as"], ["meas", "ures</w>"], ["c", "er"], ["cer", "ta"], ["networ", "k</w>"], ["b", "ack"], ["pro", "p"], ["prop", "ag"], ["ex", "p"], ["ation", ",</w>"], ["is", ",</w>"], ["ele", "ct"], ["sequ", "ences</w>"], ["ut", "ion</w>"], ["it", "y.</w>"], ["g", "an"], ["u", "m</w>"], ["be", "h"], ["beh", "av"], ["behav", "i"], ["t", "i"], ["s", "y"], ["li", "ght"], ["in", "to</w>"], ["g", "or"], ["lear", "n</w>"], ["t", "ention</w>"], ["p", "ar"], ["al", "le"], ["di", "ffer"], ["I", "</w>"], ["an", "t</w>"], ["proble", "m</w>"], ["w", "as</w>"], ["i", "es</w>"], ["p", "ol"], ["e", "ver"], ["g", "l"], ["h", "</w>"], ["communic", "ate</w>"], ["ght", "s,</w>"], ["mean", "ing</w>"], ["ap", "ed</w>"], ["form", "s</w>"], ["act", "ion</w>"], ["b", "</w>"], ["ne", "w</w>"], ["pre", "cis"], ["r", "it"], ["in", "vol"], ["invol", "ves</w>"], ["ev", "alu"], ["at", "ing</w>"], ["pre", "m"], ["prem", "is"], ["ct", "ive</w>"], ["reason", "ing</w>"], ["mo", "ves</w>"], ["gener", "al</w>"], ["principl", "es</w>"], ["mor", "t"], ["So", "cr"], ["Socr", "ates</w>"], ["sci", "enti"], ["scienti", "fic</w>"], ["me", "th"], ["meth", "o"], ["d", "er"], ["der", "iv"], ["E", "x"], ["per", "im"], ["perim", "ent"], ["s", "i"], ["f", "y</w>"], ["T", "w"], ["Tw", "o</w>"], ["ab", "les</w>"], ["th", "em"], ["univers", "e.</w>"], ["describ", "es</w>"], ["ion", ".</w>"], ["P", "yth"], ["gh", "t</w>"], ["pl", "us</w>"], ["c", "</w>"], ["squar", "ed.</w>"], ["im", "e</w>"], ["numb", "ers</w>"], ["on", "ly</w>"], ["v", "es.</w>"], ["fir", "s"], ["firs", "t</w>"], ["7", ",</w>"], ["chang", "e</w>"], ["ac", "c"], ["fin", "ds</w>"], [";", "</w>"], ["int", "e"], ["inte", "g"], ["S", "t"], ["an", ",</w>"], ["me", "di"], ["cent", "ral</w>"], ["en", "d"], ["b", "abilit"], ["er", "o</w>"], ["in", ".</w>"], ["we", "i"], ["back", "propag"], ["gradi", "ent</w>"], ["des", "cent"], ["1", ".</w>"], ["numb", "er</w>"], ["5", "</w>"], ["2", "</w>"], ["pro", "t"], ["on", "s,</w>"], ["nat", "ural</w>"], ["ex", "pl"], ["i", "od"], ["x", "im"], ["3", "0"], ["me", "ter"], ["meter", "s</w>"], ["s", "e"], ["er", "g"], ["iv", "al"], ["E", "</w>"], ["part", "ic"], ["at", "om"], ["atom", "ic</w>"], ["l", "im"], ["h", "o"], ["is", "s"], ["iz", "es</w>"], ["o", "x"], ["s", "e</w>"], ["process", "es</w>"], ["gor", "ithms</w>"], ["-", "b"], ["ic", "i"], ["comput", "ers</w>"], ["be", "ing</w>"], ["pro", "gra"], ["man", "y</w>"], ["transform", "er</w>"], ["at", "tention</w>"], ["iz", "ing</w>"], ["ct", "ed</w>"], ["y", "pt"], ["differ", "ent</w>"], ["i", "los"], ["ilos", "o"], ["iloso", "ph"], ["as", "ks</w>"], ["ment", "al</w>"], ["v", "alu"], ["mod", "er"], ["moder", "n</w>"], ["mor", "al</w>"], ["g", "over"], ["ph", "ys"], ["phys", "ical</w>"], ["o", "t"], ["emp", "h"], ["emph", "as"], ["iz", "ed</w>"], ["knowledg", "e.</w>"], ["h", "ol"], ["hol", "ds</w>"], ["al", "ism</w>"], ["in", "div"], ["indiv", "id"], ["individ", "u"], ["u", "re"], ["cult", "ural</w>"], ["ur", "ing</w>"], ["centur", "y</w>"], ["W", "ar</w>"], ["19", "4"], ["an", "ci"], ["anci", "ent</w>"], ["at", "ed</w>"], ["er", "e</w>"], ["m", "ent</w>"], ["C", "ol"], ["U", "n"], ["m", "achine</w>"], ["model", "</w>"], ["model", ":</w>"], ["y", ":</w>"], ["ever", "y</w>"], ["as", "t</w>"], ["c", "e.</w>"], ["th", "ou"], ["Wor", "ds</w>"], ["car", "ry</w>"], ["text", ".</w>"], ["G", "ra"], ["sent", "enc"], ["su", "b"], ["o", "c"], ["wor", "d</w>"], ["mean", "ing.</w>"], ["ar", "g"], ["v", "al"], ["i", "d</w>"], ["lo", "ws</w>"], ["log", "ic"], ["logic", "all"], ["wh", "ether</w>"], ["th", "en</w>"], ["und", "er"], ["t", "est"], ["pre", "d"], ["pred", "ic"], ["predic", "t"], ["des", "ig"], ["d", "o"], ["do", "es</w>"], ["o", "t</w>"], ["ca", "us"], ["acc", "um"], ["accum", "ul"], ["und", "er</w>"], ["c", "ur"], ["at", "ive</w>"], ["res", "pe"], ["respe", "ct</w>"], ["un", "certa"], ["uncerta", "int"], ["learn", "s</w>"], ["ad", "ju"], ["adju", "st"], ["wei", "ght"], ["descent", ".</w>"], ["ith", "m</w>"], ["hypothes", "is,</w>"], ["elect", "r"], ["in", "form"], ["is", "ms</w>"], ["ad", "v"], ["s", "ur"], ["re", "pro"], ["repro", "du"], ["reprodu", "ce</w>"], ["at", "el"], ["st", "e"], ["it", "y</w>"], ["ant", "um</w>"], ["me", "ch"], ["mech", "an"], ["behavi", "or</w>"], ["ex", "h"], ["exh", "ib"], ["exhib", "it</w>"], ["e", "-"], ["p", "</w>"], ["or", "gan"], ["me", "mor"], ["e", "d"], ["M", "achine</w>"], ["la", "y"], ["lay", "ers</w>"], ["ar", "ch"], ["arch", "it"], ["archit", "ect"], ["sel", "f"], ["l", "</w>"], ["sy", "st"], ["syst", "em"], ["system", "s</w>"], ["k", "e</w>"], ["c", "k</w>"], ["co", "d"], ["ab", "or"], ["in", "ter"], ["inter", "con"], ["intercon", "ne"], ["interconne", "cted</w>"], ["an", "d"], ["ar", "d</w>"], ["for", "m</w>"], ["c", "or"], ["valu", "es,</w>"], ["a", "m"], ["c", "e"], ["w", "el"], ["ff", "ect"], ["ow", "n</w>"], ["m", "in"], ["ow", "</w>"], ["rel", "ate</w>"], ["og", "y</w>"], ["ure", ",</w>"], ["iz", "ation</w>"], ["o", "un"], ["ro", "p"], ["f", "act"], ["in", "v"], ["ar", "k"], ["wh", "ere</w>"], ["e", "o"], ["ing", "?</w>"], ["t", "est</w>"], ["c", "an</w>"], ["par", "a"], ["los", "s</w>"], ["wh", "en</w>"], ["tra", "in"], ["b", "u"], ["s", "m"], ["sm", "all</w>"], ["ti", "me"], ["qu", "ic"], ["quic", "k</w>"], ["b", "ro"], ["bro", "w"], ["brow", "n</w>"], ["fo", "x</w>"], ["ju", "mp"], ["jump", "s</w>"], ["o", "v"], ["ov", "er</w>"], ["la", "z"], ["laz", "y</w>"], ["d", "og"], ["dog", ".</w>"], ["sent", "ence</w>"], ["le", "t"], ["let", "t"], ["lett", "er</w>"], ["En", "gl"], ["Engl", "is"], ["Englis", "h</w>"], ["al", "ph"], ["alph", "ab"], ["alphab", "et</w>"], ["le", "ast</w>"], ["on", "ce.</w>"], ["L", "anguage</w>"], ["wh", "ic"], ["whic", "h</w>"], ["human", "s</w>"], ["thou", "ghts,</w>"], ["fe", "el"], ["feel", "ing"], ["feeling", "s,</w>"], ["ide", "as"], ["ideas", ".</w>"], ["sh", "aped</w>"], ["cult", "ure</w>"], ["con", "text.</w>"], ["Gra", "mm"], ["Gramm", "ar</w>"], ["pro", "v"], ["prov", "id"], ["provid", "es</w>"], ["r", "ul"], ["rul", "es</w>"], ["con", "struct"], ["construct", "ing</w>"], ["sentenc", "es.</w>"], ["sub", "j"], ["subj", "e"], ["subje", "ct</w>"], ["per", "forms</w>"], ["describ", "ed</w>"], ["ver", "b</w>"], ["ob", "j"], ["obj", "ect"], ["object", ".</w>"], ["V", "oc"], ["Voc", "ab"], ["Vocab", "ul"], ["Vocabul", "ary</w>"], ["g", "ro"], ["gro", "ws</w>"], ["read", "ing</w>"], ["con", "vers"], ["convers", "ation.</w>"], ["E", "ach"], ["Each", "</w>"], ["to", "ol"], ["tool", "</w>"], ["ex", "pr"], ["expr", "ess"], ["express", "ing</w>"], ["precis", "e</w>"], ["C", "rit"], ["Crit", "ical</w>"], ["think", "ing</w>"], ["quest", "ion"], ["question", "ing</w>"], ["as", "su"], ["assu", "mp"], ["assump", "t"], ["assumpt", "ions,</w>"], ["evalu", "ating</w>"], ["ev", "id"], ["evid", "ence,</w>"], ["form", "ing</w>"], ["log", "ical</w>"], ["A", "n</w>"], ["arg", "um"], ["argum", "ent</w>"], ["val", "id</w>"], ["i", "f</w>"], ["conclus", "ion</w>"], ["f", "ol"], ["fol", "lows</w>"], ["logicall", "y</w>"], ["premis", "es,</w>"], ["re", "g"], ["reg", "ar"], ["regar", "d"], ["regard", "l"], ["regardl", "ess</w>"], ["premis", "es</w>"], ["t", "ru"], ["tru", "e.</w>"], ["De", "du"], ["Dedu", "ctive</w>"], ["I", "f</w>"], ["m", "en</w>"], ["mort", "al</w>"], ["man", ",</w>"], ["mort", "al"], ["mortal", ".</w>"], ["Indu", "ctive</w>"], ["observ", "ations</w>"], ["under", "li"], ["underli", "es</w>"], ["metho", "d.</w>"], ["hypothes", "is</w>"], ["test", "able</w>"], ["predict", "ion</w>"], ["deriv", "ed</w>"], ["theor", "y.</w>"], ["Ex", "periment"], ["Experiment", "s</w>"], ["desig", "n"], ["design", "ed</w>"], ["con", "fir"], ["confir", "m</w>"], ["f", "al"], ["fal", "si"], ["falsi", "fy</w>"], ["hypothes", "es.</w>"], ["C", "or"], ["Cor", "rel"], ["Correl", "ation</w>"], ["n", "ot</w>"], ["imp", "ly</w>"], ["caus", "ation.</w>"], ["v", "ari"], ["vari", "ables</w>"], ["ma", "y</w>"], ["mo", "ve</w>"], ["to", "g"], ["tog", "ether</w>"], ["ca", "using</w>"], ["o", "ther"], ["other", ".</w>"], ["M", "a"], ["Ma", "them"], ["Mathem", "at"], ["Mathemat", "ics</w>"], ["pattern", "s,</w>"], ["struct", "ur"], ["structur", "es,</w>"], ["rel", "ation"], ["relation", "sh"], ["relationsh", "i"], ["relationshi", "p"], ["relationship", "s</w>"], ["precis", "ion.</w>"], ["Pyth", "ag"], ["Pythag", "or"], ["Pythagor", "e"], ["Pythagore", "an</w>"], ["theor", "e"], ["theore", "m</w>"], ["st", "ates</w>"], ["ri", "ght</w>"], ["t", "ri"], ["tri", "ang"], ["triang", "le"], ["triangle", ",</w>"], ["P", "r"], ["Pr", "ime</w>"], ["div", "is"], ["divis", "ib"], ["divisib", "le</w>"], ["them", "sel"], ["themsel", "ves.</w>"], ["pr", "im"], ["prim", "es</w>"], ["2", ",</w>"], ["5", ",</w>"], ["1", "1"], ["11", ",</w>"], ["1", "3,</w>"], ["1", "7,</w>"], ["19", ".</w>"], ["C", "al"], ["Cal", "cul"], ["Calcul", "us</w>"], ["accumul", "ation.</w>"], ["D", "i"], ["Di", "ffer"], ["Differ", "enti"], ["Differenti", "ation</w>"], ["r", "ates</w>"], ["chang", "e"], ["change", ";</w>"], ["integ", "r"], ["integr", "ation</w>"], ["ar", "e"], ["are", "as</w>"], ["cur", "ves.</w>"], ["deriv", "ative</w>"], ["2", "x"], ["2x", ".</w>"], ["integ", "ral</w>"], ["2", "x</w>"], ["con", "st"], ["const", "ant"], ["constant", ".</w>"], ["St", "at"], ["Stat", "ist"], ["Statist", "ics</w>"], ["uncertaint", "y.</w>"], ["M", "e"], ["Me", "an,</w>"], ["medi", "an,</w>"], ["mod", "e</w>"], ["t", "end"], ["tend", "enc"], ["tendenc", "y.</w>"], ["P", "ro"], ["Pro", "babilit"], ["Probabilit", "y</w>"], ["r", "ang"], ["rang", "es</w>"], ["z", "ero</w>"], ["on", "e.</w>"], ["Z", "ero</w>"], ["imp", "o"], ["impo", "s"], ["impos", "si"], ["impossi", "ble"], ["impossible", ";</w>"], ["certa", "in.</w>"], ["adjust", "ing</w>"], ["weight", "s</w>"], ["backpropag", "ation</w>"], ["B", "in"], ["Bin", "ary</w>"], ["de", "c"], ["dec", "im"], ["decim", "al</w>"], ["1", "0"], ["10", "1"], ["101", "</w>"], ["b", "in"], ["bin", "ar"], ["binar", "y.</w>"], ["L", "og"], ["Log", "ar"], ["Logar", "ithms</w>"], ["in", "vers"], ["invers", "e</w>"], ["exp", "on"], ["expon", "enti"], ["exponenti", "ation.</w>"], ["log", "ar"], ["logar", "ithm</w>"], ["bas", "e</w>"], ["8", "</w>"], ["be", "ca"], ["beca", "use</w>"], ["p", "ow"], ["pow", "er</w>"], ["3", "</w>"], ["8", ".</w>"], ["metho", "d</w>"], ["observ", "ation,</w>"], ["ex", "periment"], ["experiment", ",</w>"], ["an", "al"], ["anal", "ys"], ["analys", "is,</w>"], ["conclusion", ".</w>"], ["A", "to"], ["Ato", "ms</w>"], ["bas", "ic</w>"], ["un", "its</w>"], ["m", "atter"], ["matter", ".</w>"], ["Th", "e"], ["The", "y</w>"], ["con", "s"], ["cons", "is"], ["consis", "t</w>"], ["prot", "ons,</w>"], ["ne", "ut"], ["neut", "r"], ["neutr", "ons,</w>"], ["electr", "on"], ["electron", "s.</w>"], ["D", "N"], ["DN", "A</w>"], ["car", "ri"], ["carri", "es</w>"], ["gen", "e"], ["gene", "t"], ["genet", "ic</w>"], ["inform", "ation</w>"], ["fo", "ur"], ["four", "</w>"], ["bas", "es"], ["bases", ":</w>"], ["ad", "en"], ["aden", "ine,</w>"], ["th", "y"], ["thy", "m"], ["thym", "ine,</w>"], ["gu", "an"], ["guan", "ine,</w>"], ["c", "y"], ["cy", "to"], ["cyto", "s"], ["cytos", "in"], ["cytosin", "e.</w>"], ["E", "vol"], ["Evol", "ution</w>"], ["s", "elect"], ["select", "ion</w>"], ["expl", "a"], ["expla", "in"], ["explain", "s</w>"], ["b", "iod"], ["biod", "ivers"], ["biodivers", "ity.</w>"], ["O", "r"], ["Or", "gan"], ["Organ", "isms</w>"], ["adv", "ant"], ["advant", "ag"], ["advantag", "e"], ["advantage", "ou"], ["advantageou", "s</w>"], ["tra", "its</w>"], ["sur", "v"], ["surv", "ive</w>"], ["mor", "e.</w>"], ["spe", "ed</w>"], ["li", "ght</w>"], ["v", "ac"], ["vac", "u"], ["vacu", "um</w>"], ["ap", "pro"], ["appro", "xim"], ["approxim", "atel"], ["approximatel", "y</w>"], ["30", "0</w>"], ["m", "ill"], ["mill", "ion</w>"], ["p", "er</w>"], ["se", "con"], ["secon", "d.</w>"], ["E", "in"], ["Ein", "ste"], ["Einste", "in"], ["Einstein", "'"], ["Einstein'", "s</w>"], ["theor", "y</w>"], ["rel", "at"], ["relat", "iv"], ["relativ", "ity</w>"], ["sh", "ow"], ["show", "s</w>"], ["m", "as"], ["mas", "s</w>"], ["en", "erg"], ["energ", "y</w>"], ["equ", "ival"], ["equival", "ent"], ["equivalent", ":</w>"], ["m", "c</w>"], ["Q", "u"], ["Qu", "antum</w>"], ["mechan", "ics</w>"], ["partic", "les</w>"], ["s", "c"], ["sc", "al"], ["scal", "e.</w>"], ["P", "art"], ["Part", "ic"], ["Partic", "les</w>"], ["w", "av"], ["wav", "e-"], ["wave-", "partic"], ["wave-partic", "le</w>"], ["du", "al"], ["dual", "ity.</w>"], ["C", "lim"], ["Clim", "ate</w>"], ["d", "r"], ["dr", "iv"], ["driv", "en</w>"], ["g", "re"], ["gre", "en"], ["green", "ho"], ["greenho", "use</w>"], ["g", "as</w>"], ["em", "iss"], ["emiss", "ions</w>"], ["tra", "p</w>"], ["h", "e"], ["he", "at</w>"], ["at", "mo"], ["atmo", "s"], ["atmos", "ph"], ["atmosph", "er"], ["atmospher", "e.</w>"], ["per", "iod"], ["period", "ic</w>"], ["t", "able</w>"], ["organ", "izes</w>"], ["ele", "ment"], ["element", "s</w>"], ["ch", "em"], ["chem", "ical</w>"], ["pro", "per"], ["proper", "ti"], ["properti", "es.</w>"], ["P", "ho"], ["Pho", "to"], ["Photo", "sy"], ["Photosy", "n"], ["Photosyn", "thes"], ["Photosynthes", "is</w>"], ["con", "ver"], ["conver", "t"], ["convert", "s</w>"], ["s", "un"], ["sun", "light"], ["sunlight", ",</w>"], ["car", "b"], ["carb", "on</w>"], ["di", "ox"], ["diox", "id"], ["dioxid", "e,</w>"], ["w", "at"], ["wat", "er</w>"], ["gl", "u"], ["glu", "co"], ["gluco", "se</w>"], ["ox", "y"], ["oxy", "gen"], ["oxygen", ".</w>"], ["comput", "er</w>"], ["process", "ing</w>"], ["un", "it"], ["unit", ",</w>"], ["memor", "y,</w>"], ["st", "or"], ["stor", "ag"], ["storag", "e.</w>"], ["A", "l"], ["Al", "gorithms</w>"], ["st", "ep"], ["step", "-b"], ["step-b", "y"], ["step-by", "-"], ["step-by-", "st"], ["step-by-st", "ep</w>"], ["proc", "ed"], ["proced", "ures</w>"], ["sol", "v"], ["solv", "ing</w>"], ["proble", "m"], ["problem", "s.</w>"], ["E", "ff"], ["Eff", "ici"], ["Effici", "ent</w>"], ["al", "gorithms</w>"], ["s", "av"], ["sav", "e</w>"], ["t", "ime</w>"], ["res", "o"], ["reso", "ur"], ["resour", "c"], ["resourc", "es.</w>"], ["en", "ables</w>"], ["expl", "ic"], ["explic", "it"], ["explicit", "ly</w>"], ["progra", "m"], ["program", "me"], ["programme", "d.</w>"], ["De", "ep</w>"], ["networ", "ks</w>"], ["re", "co"], ["reco", "g"], ["recog", "n"], ["recogn", "ize</w>"], ["pattern", "s</w>"], ["comp", "le"], ["comple", "x</w>"], ["architect", "ure</w>"], ["self", "-"], ["self-", "attention</w>"], ["proc", "ess</w>"], ["par", "alle"], ["paralle", "l"], ["parallel", ",</w>"], ["re", "vol"], ["revol", "ut"], ["revolut", "ion"], ["revolution", "izing</w>"], ["process", "ing.</w>"], ["Pyth", "on</w>"], ["po", "p"], ["pop", "ul"], ["popul", "ar</w>"], ["progra", "mm"], ["programm", "ing</w>"], ["know", "n</w>"], ["read", "abilit"], ["readabilit", "y</w>"], ["vers", "at"], ["versat", "ilit"], ["versatilit", "y.</w>"], ["V", "ers"], ["Vers", "ion</w>"], ["con", "t"], ["cont", "ro"], ["contro", "l</w>"], ["li", "ke</w>"], ["G", "it</w>"], ["tra", "ck</w>"], ["chang", "es</w>"], ["cod", "e</w>"], ["en", "able</w>"], ["col", "l"], ["coll", "abor"], ["collabor", "ation.</w>"], ["In", "ter"], ["Inter", "ne"], ["Interne", "t</w>"], ["g", "lo"], ["glo", "b"], ["glob", "al</w>"], ["communic", "ating</w>"], ["st", "and"], ["stand", "ard</w>"], ["pro", "to"], ["proto", "col"], ["protocol", "s.</w>"], ["En", "cr"], ["Encr", "ypt"], ["Encrypt", "ion</w>"], ["prot", "ect"], ["protect", "s</w>"], ["transform", "ing</w>"], ["un", "read"], ["unread", "able</w>"], ["cor", "re"], ["corre", "ct</w>"], ["k", "e"], ["ke", "y.</w>"], ["A", "P"], ["AP", "I"], ["API", "s</w>"], ["al", "lo"], ["allo", "w</w>"], ["s", "o"], ["so", "f"], ["sof", "t"], ["soft", "w"], ["softw", "are</w>"], ["ap", "pl"], ["appl", "ic"], ["applic", "ations</w>"], ["sh", "are</w>"], ["P", "h"], ["Ph", "ilosoph"], ["Philosoph", "y</w>"], ["f", "und"], ["fund", "a"], ["funda", "mental</w>"], ["quest", "ions</w>"], ["ab", "out</w>"], ["ex", "ist"], ["exist", "ence,</w>"], ["knowledg", "e,</w>"], ["reason", ".</w>"], ["D", "es"], ["Des", "c"], ["Desc", "art"], ["Descart", "es</w>"], ["w", "ro"], ["wro", "t"], ["wrot", "e"], ["wrote", ":</w>"], ["think", ",</w>"], ["ther", "e"], ["there", "for"], ["therefor", "e</w>"], ["am", ".</w>"], ["Th", "is</w>"], ["fo", "und"], ["found", "ation"], ["foundation", "al</w>"], ["st", "at"], ["stat", "em"], ["statem", "ent</w>"], ["ph", "ilosoph"], ["philosoph", "y.</w>"], ["E", "th"], ["Eth", "ics</w>"], ["gover", "n</w>"], ["behavi", "or"], ["behavior", ".</w>"], ["ri", "ght"], ["right", "?</w>"], ["g", "o"], ["go", "od"], ["good", "?</w>"], ["P", "l"], ["Pl", "at"], ["Plat", "o</w>"], ["b", "el"], ["bel", "i"], ["beli", "ev"], ["believ", "ed</w>"], ["ide", "al</w>"], ["be", "y"], ["bey", "on"], ["beyon", "d</w>"], ["w", "e</w>"], ["per", "ce"], ["perce", "iv"], ["perceiv", "e.</w>"], ["A", "ri"], ["Ari", "st"], ["Arist", "ot"], ["Aristot", "le</w>"], ["emphas", "ized</w>"], ["observ", "ation</w>"], ["emp", "ir"], ["empir", "ical</w>"], ["stu", "d"], ["stud", "y</w>"], ["bas", "is</w>"], ["U", "t"], ["Ut", "ilit"], ["Utilit", "ari"], ["Utilitari", "an"], ["Utilitarian", "ism</w>"], ["b", "est</w>"], ["ma", "xim"], ["maxim", "izes</w>"], ["over", "all</w>"], ["wel", "l"], ["well", "-"], ["well-", "being</w>"], ["a", "ffect"], ["affect", "ed.</w>"], ["K", "ant</w>"], ["ar", "gu"], ["argu", "ed</w>"], ["act", "ions</w>"], ["m", "us"], ["mus", "t</w>"], ["b", "e</w>"], ["gu", "id"], ["guid", "ed</w>"], ["univers", "al"], ["universal", "iz"], ["universaliz", "able</w>"], ["principl", "es.</w>"], ["Ex", "ist"], ["Exist", "enti"], ["Existenti", "alism</w>"], ["individu", "als</w>"], ["c", "re"], ["cre", "ate</w>"], ["the", "ir"], ["their", "</w>"], ["in", "different</w>"], ["min", "d"], ["mind", "-b"], ["mind-b", "od"], ["mind-bod", "y</w>"], ["h", "ow</w>"], ["ex", "per"], ["exper", "i"], ["experi", "ences</w>"], ["b", "ra"], ["bra", "in.</w>"], ["E", "p"], ["Ep", "ist"], ["Epist", "em"], ["Epistem", "ol"], ["Epistemol", "ogy</w>"], ["nat", "ure,</w>"], ["s", "co"], ["sco", "p"], ["scop", "e,</w>"], ["lim", "its</w>"], ["hum", "an</w>"], ["H", "um"], ["Hum", "an</w>"], ["c", "iv"], ["civ", "il"], ["civil", "ization</w>"], ["em", "erg"], ["emerg", "ed</w>"], ["ar", "oun"], ["aroun", "d</w>"], ["30", "0"], ["300", "0</w>"], ["B", "C"], ["BC", "E</w>"], ["M", "es"], ["Mes", "o"], ["Meso", "po"], ["Mesopo", "ta"], ["Mesopota", "m"], ["Mesopotam", "i"], ["Mesopotami", "a"], ["Mesopotamia", ",</w>"], ["E", "g"], ["Eg", "ypt"], ["Egypt", ",</w>"], ["Indu", "s</w>"], ["V", "alle"], ["Valle", "y,</w>"], ["C", "h"], ["Ch", "in"], ["Chin", "a"], ["China", ".</w>"], ["R", "en"], ["Ren", "a"], ["Rena", "iss"], ["Renaiss", "an"], ["Renaissan", "ce</w>"], ["re", "b"], ["reb", "ir"], ["rebir", "th</w>"], ["E", "u"], ["Eu", "rop"], ["Europ", "e</w>"], ["1", "4"], ["14", "th</w>"], ["1", "7"], ["17", "th</w>"], ["centur", "i"], ["centuri", "es,</w>"], ["emphas", "izing</w>"], ["human", "ism</w>"], ["art", ".</w>"], ["Indu", "st"], ["Indust", "ri"], ["Industri", "al</w>"], ["R", "ev"], ["Rev", "ol"], ["Revol", "ution</w>"], ["transform", "ed</w>"], ["e", "con"], ["econ", "om"], ["econom", "ies</w>"], ["ag", "r"], ["agr", "ari"], ["agrari", "an</w>"], ["man", "u"], ["manu", "fact"], ["manufact", "uring</w>"], ["1", "8"], ["18", "th</w>"], ["on", "w"], ["onw", "ar"], ["onwar", "d.</w>"], ["Wor", "ld</w>"], ["end", "ed</w>"], ["194", "5</w>"], ["de", "fe"], ["defe", "at</w>"], ["N", "a"], ["Na", "z"], ["Naz", "i"], ["Nazi", "</w>"], ["G", "er"], ["Ger", "many</w>"], ["I", "mp"], ["Imp", "er"], ["Imper", "i"], ["Imperi", "al</w>"], ["J", "ap"], ["Jap", "an"], ["Japan", ".</w>"], ["inv", "ention</w>"], ["pr", "int"], ["print", "ing</w>"], ["pr", "ess</w>"], ["1", "5"], ["15", "th</w>"], ["de", "mo"], ["demo", "cr"], ["democr", "at"], ["democrat", "ized</w>"], ["knowledg", "e</w>"], ["f", "u"], ["fu", "ele"], ["fuele", "d</w>"], ["R", "e"], ["Re", "form"], ["Reform", "ation.</w>"], ["f", "all</w>"], ["R", "om"], ["Rom", "an</w>"], ["E", "mp"], ["Emp", "ir"], ["Empir", "e</w>"], ["m", "ark"], ["mark", "ed</w>"], ["trans", "it"], ["transit", "ion</w>"], ["medi", "ev"], ["mediev", "al</w>"], ["h", "ist"], ["hist", "or"], ["histor", "y.</w>"], ["De", "mo"], ["Demo", "c"], ["Democ", "ra"], ["Democra", "c"], ["Democrac", "y</w>"], ["or", "ig"], ["orig", "in"], ["origin", "ated</w>"], ["A", "th"], ["Ath", "en"], ["Athen", "s,</w>"], ["c", "it"], ["cit", "iz"], ["citiz", "en"], ["citizen", "s</w>"], ["v", "ot"], ["vot", "ed</w>"], ["la", "ws</w>"], ["pol", "ici"], ["polici", "es.</w>"], ["En", "light"], ["Enlight", "en"], ["Enlighten", "ment</w>"], ["pro", "mo"], ["promo", "t"], ["promot", "ed</w>"], ["reason", ",</w>"], ["sci", "ence,</w>"], ["individu", "al</w>"], ["ri", "ghts,</w>"], ["in", "f"], ["inf", "l"], ["infl", "u"], ["influ", "enc"], ["influenc", "ing</w>"], ["gover", "n"], ["govern", "ment"], ["government", "s.</w>"], ["Col", "on"], ["Colon", "i"], ["Coloni", "alism</w>"], ["res", "h"], ["resh", "aped</w>"], ["con", "quest"], ["conquest", ",</w>"], ["exp", "lo"], ["explo", "it"], ["exploit", "ation,</w>"], ["ex", "chang"], ["exchang", "e.</w>"], ["Col", "d</w>"], ["g", "eo"], ["geo", "pol"], ["geopol", "it"], ["geopolit", "ical</w>"], ["r", "ival"], ["rival", "ry</w>"], ["be", "t"], ["bet", "we"], ["betwe", "en</w>"], ["Un", "it"], ["Unit", "ed</w>"], ["St", "ates</w>"], ["So", "v"], ["Sov", "i"], ["Sovi", "et</w>"], ["Un", "ion</w>"], ["194", "7"], ["1947", "</w>"], ["19", "9"], ["199", "1.</w>"], ["c", "ap"], ["cap", "it"], ["capit", "al</w>"], ["F", "ran"], ["learn", "ing?</w>"], ["im", "pro"], ["impro", "ve</w>"], ["k", "?</w>"], ["part", "s</w>"], ["sequ", "ence</w>"], ["T", "uring</w>"], ["o", "pt"], ["para", "meters</w>"], ["pro", "babilit"], ["probabilit", "ies</w>"], ["gener", "ate</w>"], ["co", "h"], ["coh", "er"], ["f", "it"], ["fit", "t"], ["train", "ing</w>"], ["al", "ize</w>"], ["gradi", "ent"], ["re", "le"], ["rele", "v"], ["relev", "ant</w>"], ["tra", "in</w>"], ["le", "ct</w>"], ["text", ",</w>"], ["c", "lear"], ["clear", "l"], ["sol", "ut"], ["evalu", "ate</w>"], ["imp", "le"], ["imple", "ment</w>"], ["w", "rit"], ["re", "v"], ["ing", ",</w>"], ["g", "</w>"], ["s", "k"], ["sk", "ill"], ["o", "o"], ["bu", "il"], ["data", ",</w>"], ["comput", "e</w>"], ["u", "p"], ["ch", "e"], ["st", "ar"], ["it", "or</w>"], ["be", "g"], ["time", ".</w>"], ["ta", "in"], ["b", "r"], ["y", "ou"], ["you", "</w>"], ["Fran", "ce"], ["France", "?</w>"], ["Fran", "ce</w>"], ["P", "ar"], ["Par", "is"], ["Paris", ".</w>"], ["b", "ran"], ["bran", "ch"], ["branch", "</w>"], ["A", "I</w>"], ["per", "form"], ["perform", "an"], ["performan", "ce.</w>"], ["H", "ow</w>"], ["wor", "k?</w>"], ["mechan", "isms</w>"], ["s", "im"], ["sim", "ul"], ["simul", "t"], ["simult", "an"], ["simultan", "eo"], ["simultaneo", "us"], ["simultaneous", "l"], ["simultaneousl", "y.</w>"], ["test", "?</w>"], ["int", "el"], ["intel", "li"], ["intelli", "g"], ["intellig", "ent</w>"], ["in", "di"], ["indi", "st"], ["indist", "ing"], ["indisting", "u"], ["indistingu", "is"], ["indistinguis", "h"], ["indistinguish", "able</w>"], ["human", ".</w>"], ["descent", "?</w>"], ["Gra", "di"], ["Gradi", "ent</w>"], ["desc", "ent</w>"], ["opt", "im"], ["optim", "ization</w>"], ["al", "gor"], ["algor", "ithm</w>"], ["adjust", "s</w>"], ["di", "re"], ["dire", "ct"], ["direct", "ion</w>"], ["ste", "ep"], ["steep", "est</w>"], ["re", "du"], ["redu", "ct"], ["reduct", "ion.</w>"], ["model", "?</w>"], ["as", "s"], ["ass", "ig"], ["assig", "n"], ["assign", "s</w>"], ["wor", "ds</w>"], ["coher", "ent</w>"], ["over", "fitt"], ["overfitt", "ing?</w>"], ["O", "ver"], ["Over", "fitt"], ["Overfitt", "ing</w>"], ["oc", "cur"], ["occur", "s</w>"], ["to", "o</w>"], ["wel", "l</w>"], ["f", "a"], ["fa", "il"], ["fail", "s</w>"], ["gener", "alize</w>"], ["backpropag", "ation"], ["backpropagation", "?</w>"], ["B", "ack"], ["Back", "propag"], ["Backpropag", "ation</w>"], ["comput", "es</w>"], ["gradient", "s</w>"], ["ch", "a"], ["cha", "in</w>"], ["ru", "le"], ["rule", ".</w>"], ["de", "ep</w>"], ["A", "t"], ["At", "tention</w>"], ["al", "lows</w>"], ["model", "s</w>"], ["fo", "c"], ["foc", "us</w>"], ["in", "p"], ["inp", "u"], ["inpu", "t</w>"], ["ma", "k"], ["mak", "ing</w>"], ["predict", "ion"], ["prediction", "s.</w>"], ["networ", "k?</w>"], ["ne", "ur"], ["neur", "on"], ["neuron", "s</w>"], ["re", "pr"], ["repr", "es"], ["repres", "ent"], ["represent", "ations</w>"], ["col", "lect</w>"], ["cor", "p"], ["corp", "us"], ["corpus", ",</w>"], ["to", "k"], ["tok", "en"], ["token", "ize</w>"], ["in", "it"], ["init", "i"], ["initi", "alize</w>"], ["model", ",</w>"], ["min", "im"], ["minim", "ize</w>"], ["c", "ro"], ["cro", "s"], ["cros", "s"], ["cross", "-"], ["cross-", "ent"], ["cross-ent", "rop"], ["cross-entrop", "y</w>"], ["sol", "ve</w>"]], "vocab_size": 2048, "special": {"<PAD>": 0, "<UNK>": 1, "<BOS>": 2, "<EOS>": 3, "<MASK>": 4}}